#pragma once
#include <cstdint>

alignas(16) const unsigned char g_aurasync_state_model[] = {
  0x20, 0x00, 0x00, 0x00, 0x54, 0x46, 0x4c, 0x33, 0x00, 0x00, 0x00, 0x00,
  0x14, 0x00, 0x20, 0x00, 0x1c, 0x00, 0x18, 0x00, 0x14, 0x00, 0x10, 0x00,
  0x0c, 0x00, 0x00, 0x00, 0x08, 0x00, 0x04, 0x00, 0x14, 0x00, 0x00, 0x00,
  0x1c, 0x00, 0x00, 0x00, 0xa0, 0x00, 0x00, 0x00, 0xf8, 0x00, 0x00, 0x00,
  0x50, 0x15, 0x00, 0x00, 0x60, 0x15, 0x00, 0x00, 0xb8, 0x28, 0x00, 0x00,
  0x03, 0x00, 0x00, 0x00, 0x01, 0x00, 0x00, 0x00, 0x10, 0x00, 0x00, 0x00,
  0x00, 0x00, 0x0a, 0x00, 0x10, 0x00, 0x0c, 0x00, 0x08, 0x00, 0x04, 0x00,
  0x0a, 0x00, 0x00, 0x00, 0x0c, 0x00, 0x00, 0x00, 0x1c, 0x00, 0x00, 0x00,
  0x3c, 0x00, 0x00, 0x00, 0x0f, 0x00, 0x00, 0x00, 0x73, 0x65, 0x72, 0x76,
  0x69, 0x6e, 0x67, 0x5f, 0x64, 0x65, 0x66, 0x61, 0x75, 0x6c, 0x74, 0x00,
  0x01, 0x00, 0x00, 0x00, 0x04, 0x00, 0x00, 0x00, 0x88, 0xff, 0xff, 0xff,
  0x0d, 0x00, 0x00, 0x00, 0x04, 0x00, 0x00, 0x00, 0x08, 0x00, 0x00, 0x00,
  0x6f, 0x75, 0x74, 0x70, 0x75, 0x74, 0x5f, 0x30, 0x00, 0x00, 0x00, 0x00,
  0x01, 0x00, 0x00, 0x00, 0x04, 0x00, 0x00, 0x00, 0x92, 0xea, 0xff, 0xff,
  0x04, 0x00, 0x00, 0x00, 0x15, 0x00, 0x00, 0x00, 0x61, 0x75, 0x72, 0x61,
  0x73, 0x79, 0x6e, 0x63, 0x5f, 0x64, 0x73, 0x70, 0x5f, 0x66, 0x65, 0x61,
  0x74, 0x75, 0x72, 0x65, 0x73, 0x00, 0x00, 0x00, 0x02, 0x00, 0x00, 0x00,
  0x34, 0x00, 0x00, 0x00, 0x04, 0x00, 0x00, 0x00, 0xdc, 0xff, 0xff, 0xff,
  0x10, 0x00, 0x00, 0x00, 0x04, 0x00, 0x00, 0x00, 0x13, 0x00, 0x00, 0x00,
  0x43, 0x4f, 0x4e, 0x56, 0x45, 0x52, 0x53, 0x49, 0x4f, 0x4e, 0x5f, 0x4d,
  0x45, 0x54, 0x41, 0x44, 0x41, 0x54, 0x41, 0x00, 0x08, 0x00, 0x0c, 0x00,
  0x08, 0x00, 0x04, 0x00, 0x08, 0x00, 0x00, 0x00, 0x0f, 0x00, 0x00, 0x00,
  0x04, 0x00, 0x00, 0x00, 0x13, 0x00, 0x00, 0x00, 0x6d, 0x69, 0x6e, 0x5f,
  0x72, 0x75, 0x6e, 0x74, 0x69, 0x6d, 0x65, 0x5f, 0x76, 0x65, 0x72, 0x73,
  0x69, 0x6f, 0x6e, 0x00, 0x11, 0x00, 0x00, 0x00, 0x54, 0x14, 0x00, 0x00,
  0x4c, 0x14, 0x00, 0x00, 0x2c, 0x14, 0x00, 0x00, 0xdc, 0x13, 0x00, 0x00,
  0x8c, 0x13, 0x00, 0x00, 0x7c, 0x11, 0x00, 0x00, 0xec, 0x10, 0x00, 0x00,
  0xdc, 0x08, 0x00, 0x00, 0xcc, 0x07, 0x00, 0x00, 0xbc, 0x00, 0x00, 0x00,
  0xb4, 0x00, 0x00, 0x00, 0xac, 0x00, 0x00, 0x00, 0xa4, 0x00, 0x00, 0x00,
  0x9c, 0x00, 0x00, 0x00, 0x94, 0x00, 0x00, 0x00, 0x74, 0x00, 0x00, 0x00,
  0x04, 0x00, 0x00, 0x00, 0x5a, 0xeb, 0xff, 0xff, 0x04, 0x00, 0x00, 0x00,
  0x60, 0x00, 0x00, 0x00, 0x0c, 0x00, 0x00, 0x00, 0x08, 0x00, 0x0e, 0x00,
  0x08, 0x00, 0x04, 0x00, 0x08, 0x00, 0x00, 0x00, 0x10, 0x00, 0x00, 0x00,
  0x28, 0x00, 0x00, 0x00, 0x00, 0x00, 0x06, 0x00, 0x08, 0x00, 0x04, 0x00,
  0x06, 0x00, 0x00, 0x00, 0x04, 0x00, 0x00, 0x00, 0x01, 0x00, 0x00, 0x00,
  0xeb, 0x03, 0x00, 0x00, 0x0c, 0x00, 0x18, 0x00, 0x14, 0x00, 0x10, 0x00,
  0x0c, 0x00, 0x04, 0x00, 0x0c, 0x00, 0x00, 0x00, 0x96, 0xac, 0xc7, 0x74,
  0x6e, 0x70, 0x6f, 0x0f, 0x02, 0x00, 0x00, 0x00, 0x02, 0x00, 0x00, 0x00,
  0x04, 0x00, 0x00, 0x00, 0x06, 0x00, 0x00, 0x00, 0x32, 0x2e, 0x32, 0x30,
  0x2e, 0x30, 0x00, 0x00, 0xc6, 0xeb, 0xff, 0xff, 0x04, 0x00, 0x00, 0x00,
  0x10, 0x00, 0x00, 0x00, 0x31, 0x2e, 0x31, 0x34, 0x2e, 0x30, 0x00, 0x00,
  0x00, 0x00, 0x00, 0x00, 0x00, 0x00, 0x00, 0x00, 0xb0, 0xeb, 0xff, 0xff,
  0xb4, 0xeb, 0xff, 0xff, 0xb8, 0xeb, 0xff, 0xff, 0xbc, 0xeb, 0xff, 0xff,
  0xc0, 0xeb, 0xff, 0xff, 0xf6, 0xeb, 0xff, 0xff, 0x04, 0x00, 0x00, 0x00,
  0x00, 0x07, 0x00, 0x00, 0x21, 0x06, 0x30, 0xf6, 0x26, 0xd7, 0x01, 0x36,
  0x18, 0xf0, 0x43, 0xf0, 0x22, 0xe4, 0x31, 0x7f, 0xcc, 0xeb, 0x0b, 0xf2,
  0xd3, 0x21, 0xfd, 0xbd, 0xfd, 0xc7, 0x06, 0xf7, 0x68, 0x01, 0xd2, 0xf5,
  0x95, 0x7f, 0xe9, 0xe9, 0x3b, 0xe2, 0x32, 0x08, 0x52, 0x01, 0xbe, 0x2d,
  0x2e, 0x92, 0xc6, 0x1e, 0xd9, 0x41, 0x89, 0xe4, 0xd5, 0xf4, 0x59, 0xe1,
  0x1a, 0xc9, 0x09, 0x12, 0xf8, 0x03, 0xfd, 0xec, 0xed, 0xd9, 0xe4, 0x00,
  0x1e, 0x2f, 0x23, 0x81, 0xf6, 0x50, 0x20, 0x0e, 0x31, 0x28, 0x0d, 0xf9,
  0x9d, 0x1a, 0xfa, 0x53, 0x7f, 0x0a, 0x06, 0x20, 0xff, 0x08, 0x10, 0xf3,
  0x3e, 0xa1, 0x2d, 0x28, 0x0b, 0xe0, 0x36, 0x19, 0x4d, 0xeb, 0x00, 0x40,
  0xdd, 0x3a, 0xd2, 0x07, 0x3d, 0x02, 0x21, 0x01, 0x93, 0x75, 0x40, 0xda,
  0x06, 0xdc, 0x13, 0x4c, 0x15, 0x39, 0x2f, 0x7f, 0x1c, 0xc6, 0xf9, 0x2e,
  0x68, 0x3d, 0xae, 0xe8, 0xda, 0xf2, 0xe9, 0x12, 0xd1, 0x93, 0x6f, 0x6d,
  0x3c, 0x2b, 0xdf, 0x1c, 0xb4, 0x1f, 0x0d, 0x18, 0xd7, 0xd0, 0x3c, 0x4c,
  0xe6, 0x14, 0xb6, 0xe3, 0xff, 0x40, 0xee, 0xd6, 0x30, 0x57, 0x31, 0xe4,
  0x05, 0xe9, 0x81, 0xd6, 0x67, 0x24, 0xe4, 0x2c, 0x02, 0xe7, 0xd9, 0xdf,
  0xee, 0x1f, 0xff, 0xfb, 0xe4, 0xdd, 0x9f, 0xb8, 0x8f, 0x59, 0xee, 0x16,
  0x04, 0xe5, 0x2e, 0xc6, 0x68, 0x7f, 0xe5, 0xc8, 0xd1, 0x4c, 0x9f, 0x36,
  0xf3, 0x7f, 0xd9, 0xfe, 0xe9, 0x18, 0xd8, 0x1b, 0xa2, 0x15, 0xbd, 0x12,
  0x11, 0x44, 0x43, 0xf5, 0xb9, 0xd0, 0x6a, 0xb8, 0x09, 0xd1, 0xf4, 0xfd,
  0x34, 0x37, 0x29, 0xde, 0xa0, 0x68, 0x11, 0xe9, 0xf4, 0xdd, 0x21, 0xc9,
  0xfd, 0xea, 0x06, 0x97, 0xda, 0x0e, 0x13, 0x23, 0xf4, 0x12, 0x7f, 0x30,
  0x94, 0xfd, 0x69, 0x27, 0x50, 0xb9, 0x3d, 0x1f, 0xf6, 0x81, 0xde, 0xe3,
  0x00, 0xbf, 0xf1, 0xb5, 0x15, 0xc5, 0x41, 0x59, 0x22, 0xd0, 0xf2, 0x05,
  0xb8, 0x34, 0x33, 0xe9, 0x41, 0x2b, 0xe3, 0xfe, 0xa8, 0x42, 0x5a, 0xe1,
  0x03, 0x5f, 0xf8, 0xf7, 0x4d, 0xe9, 0xdb, 0x44, 0xc8, 0x35, 0xd9, 0x07,
  0x1a, 0xce, 0x1b, 0xa4, 0xec, 0x90, 0x08, 0x63, 0xfa, 0x7f, 0x17, 0x14,
  0x01, 0xed, 0xb6, 0xf2, 0x24, 0xbc, 0x07, 0x7f, 0x01, 0xed, 0xd3, 0x0a,
  0x54, 0xff, 0xf2, 0x40, 0x9a, 0xff, 0x61, 0x77, 0x19, 0x2d, 0xa9, 0x42,
  0x5d, 0x13, 0xb3, 0x43, 0x19, 0x7f, 0x8f, 0xd3, 0x29, 0x2f, 0x32, 0x35,
  0x03, 0x12, 0xd2, 0x25, 0xb1, 0xfb, 0x1d, 0x03, 0x02, 0x10, 0x70, 0x2d,
  0xe9, 0xe1, 0x3d, 0x3c, 0xf1, 0xf0, 0xf4, 0x0d, 0x02, 0x39, 0xd2, 0xe3,
  0xe7, 0x0b, 0x08, 0x94, 0x32, 0xea, 0x71, 0xf3, 0x48, 0x25, 0x85, 0xd0,
  0x1b, 0xd6, 0xb2, 0xef, 0x52, 0x0f, 0x7f, 0xb7, 0xf3, 0xb1, 0xff, 0xb5,
  0x10, 0xea, 0xf8, 0xd8, 0xdf, 0xfc, 0x33, 0xbf, 0x14, 0x2e, 0x35, 0x29,
  0xe8, 0x2e, 0xe5, 0x1e, 0x46, 0xee, 0x81, 0xf2, 0xcc, 0xc4, 0xd1, 0xe3,
  0xd7, 0xce, 0xdf, 0xe6, 0x72, 0xe3, 0x7f, 0xf3, 0x12, 0x59, 0xe3, 0x92,
  0x30, 0xbd, 0xb8, 0x27, 0xd0, 0xc5, 0x52, 0x5a, 0x01, 0x2e, 0x8d, 0xd9,
  0x2d, 0x2e, 0xa1, 0xea, 0xed, 0x5a, 0x32, 0x23, 0x9d, 0xe0, 0x3c, 0xfe,
  0xdc, 0x96, 0xab, 0xf1, 0xf9, 0xbc, 0xd0, 0x30, 0xbd, 0xe3, 0x06, 0x4b,
  0x1a, 0xd9, 0xe3, 0xf2, 0x12, 0xfb, 0x7f, 0x23, 0xce, 0xaf, 0x14, 0x61,
  0xdf, 0x40, 0xff, 0xef, 0x2d, 0xcd, 0xec, 0x23, 0xd7, 0x28, 0xd9, 0xee,
  0x50, 0xe1, 0xbe, 0xe7, 0x1d, 0xe0, 0xd8, 0x19, 0xf6, 0xf0, 0xd5, 0x7f,
  0x1c, 0xd2, 0x31, 0x20, 0x6a, 0xb1, 0x04, 0x58, 0xf6, 0xb6, 0xdd, 0x19,
  0x34, 0xa7, 0xe9, 0xe2, 0xc1, 0x33, 0x23, 0x81, 0x27, 0xb4, 0x32, 0x26,
  0xb6, 0xc4, 0x44, 0x46, 0xf7, 0xff, 0xb7, 0x13, 0xc7, 0xfe, 0x7f, 0xe4,
  0x43, 0x0d, 0x21, 0x23, 0xd4, 0x33, 0xc2, 0xc7, 0xf6, 0x10, 0xd9, 0x44,
  0xe8, 0x4d, 0x41, 0x23, 0x6c, 0x2e, 0xff, 0x1b, 0x96, 0xf0, 0x02, 0x75,
  0xd3, 0xcc, 0xc6, 0xdd, 0xaf, 0x32, 0x3f, 0xfb, 0xa5, 0x4b, 0x25, 0x21,
  0xf8, 0xfb, 0x24, 0xfd, 0x31, 0x7f, 0x3f, 0x13, 0xec, 0x01, 0xa5, 0xd6,
  0xf6, 0x2b, 0xe4, 0x29, 0x43, 0xa5, 0xf8, 0x06, 0xfd, 0xf6, 0x23, 0xa3,
  0xe1, 0xfe, 0xeb, 0x04, 0x14, 0x35, 0xd0, 0xb8, 0xfa, 0xb4, 0x7f, 0xf1,
  0x04, 0xcb, 0x0a, 0x42, 0x17, 0x3a, 0xc8, 0x03, 0x41, 0x41, 0x33, 0xcb,
  0x28, 0xc7, 0xdf, 0x18, 0x4b, 0xe3, 0x25, 0xd6, 0x46, 0xea, 0xb0, 0x4d,
  0xed, 0x81, 0x00, 0x63, 0xe7, 0xf5, 0xe7, 0xf1, 0xe8, 0xdb, 0xf1, 0xc5,
  0x1e, 0x4f, 0x7f, 0xdf, 0xc7, 0x3a, 0xdd, 0xda, 0xc4, 0x24, 0xd8, 0xfe,
  0xe2, 0x2c, 0x19, 0x39, 0xe6, 0x29, 0x04, 0x03, 0xec, 0x33, 0xf2, 0x21,
  0x0e, 0xa6, 0xdd, 0xa9, 0x40, 0xe0, 0xa8, 0xfc, 0x21, 0xe3, 0xf7, 0x27,
  0x01, 0xb1, 0xb8, 0x14, 0xc5, 0x0a, 0xf0, 0xc9, 0xd7, 0x4d, 0x81, 0x3c,
  0xf0, 0xbe, 0x40, 0x2f, 0x01, 0x39, 0xe9, 0xf0, 0xba, 0x0c, 0xa1, 0xe4,
  0xe3, 0x0e, 0x23, 0x96, 0xf3, 0x3d, 0xe2, 0xfc, 0x2d, 0x5b, 0xc0, 0x8c,
  0xf7, 0xd0, 0x2b, 0x1d, 0x5c, 0x81, 0xc1, 0x3d, 0x2f, 0x1c, 0x9f, 0xcd,
  0xf1, 0xfa, 0xd3, 0xe5, 0x1b, 0x01, 0x13, 0xc3, 0x08, 0x1c, 0x04, 0x09,
  0xeb, 0x13, 0x14, 0xcd, 0x9d, 0xa9, 0x0e, 0x15, 0xdc, 0xe2, 0x81, 0x33,
  0xe9, 0xb1, 0xd6, 0xac, 0xdf, 0x12, 0xc5, 0xd6, 0x51, 0x68, 0x23, 0x7f,
  0xeb, 0xd8, 0xd7, 0x11, 0x1e, 0x82, 0x4b, 0x15, 0x55, 0xd7, 0xf5, 0xfd,
  0xee, 0x26, 0x15, 0x1c, 0x4b, 0xd7, 0xf1, 0xce, 0xfd, 0x6b, 0x40, 0x2e,
  0xe6, 0xb7, 0xd8, 0x0d, 0xd0, 0xd0, 0x98, 0xb7, 0x1f, 0x11, 0xec, 0x29,
  0x81, 0x2a, 0x5c, 0xd6, 0x79, 0xa7, 0x4c, 0xf5, 0x06, 0x22, 0x54, 0x39,
  0xf0, 0x93, 0x81, 0xdc, 0xcc, 0x1a, 0xc8, 0x1a, 0x2b, 0x22, 0xdf, 0xea,
  0xe7, 0xd1, 0xe4, 0x4c, 0x99, 0xc6, 0x61, 0x32, 0x58, 0xc6, 0x61, 0x0e,
  0x2c, 0x53, 0x49, 0xe0, 0xec, 0x6b, 0x4c, 0x2e, 0xd9, 0x44, 0x03, 0x2a,
  0x09, 0xff, 0xeb, 0xf7, 0xbb, 0x07, 0xbb, 0x87, 0xf7, 0xce, 0x7f, 0xe4,
  0xa5, 0x3f, 0xe7, 0xbc, 0x2e, 0x6a, 0xed, 0x48, 0x7f, 0x91, 0x4c, 0xd9,
  0x00, 0xf6, 0x22, 0x03, 0xc8, 0xba, 0xdb, 0x0f, 0xf1, 0x2e, 0xf3, 0xd6,
  0xe8, 0x0d, 0xcc, 0x0f, 0xfe, 0xeb, 0xae, 0x4c, 0x20, 0x04, 0xfd, 0x14,
  0xb2, 0x71, 0x53, 0xd3, 0x28, 0x46, 0xf0, 0x81, 0xff, 0xcb, 0xf9, 0xff,
  0x34, 0x2a, 0xf3, 0xa9, 0x76, 0xfc, 0x1b, 0x16, 0x21, 0xfa, 0x61, 0x67,
  0xfc, 0x07, 0xce, 0x88, 0xfb, 0x2c, 0xd3, 0xf4, 0xdc, 0x0d, 0x81, 0x43,
  0x2d, 0xd8, 0xe8, 0x35, 0x06, 0x3f, 0xc3, 0xe2, 0x0d, 0xfc, 0xc0, 0x1c,
  0xd4, 0xef, 0xf0, 0xfd, 0xe3, 0x19, 0x43, 0xd9, 0xc3, 0xe7, 0xb7, 0x18,
  0x54, 0xe7, 0x4e, 0x9a, 0x24, 0xe0, 0x3d, 0x57, 0xde, 0x0d, 0x25, 0x29,
  0x0e, 0xb0, 0x2e, 0xb1, 0xfa, 0x98, 0x17, 0x47, 0xdc, 0x81, 0xd0, 0xa9,
  0xd5, 0xb1, 0x1b, 0xf9, 0xe6, 0xe1, 0xf3, 0xfc, 0x1d, 0xd7, 0x3a, 0x24,
  0x0a, 0xef, 0x02, 0xed, 0xf3, 0xe3, 0x0a, 0x0e, 0x2e, 0xd2, 0x3d, 0xf4,
  0x81, 0xee, 0x1c, 0xed, 0x2a, 0x11, 0x38, 0xdb, 0x0e, 0x81, 0x08, 0x0f,
  0x02, 0xc3, 0x1b, 0xef, 0xcc, 0x2f, 0xeb, 0x7b, 0x0c, 0xbb, 0xbb, 0x0e,
  0xe7, 0x0f, 0xa2, 0x49, 0x12, 0xc1, 0x6f, 0x9b, 0xdc, 0x53, 0xc1, 0xc6,
  0x86, 0x16, 0x4e, 0xe7, 0xf1, 0x44, 0xe3, 0xc6, 0xf2, 0x49, 0x81, 0x49,
  0x11, 0x20, 0xd1, 0x63, 0x64, 0x22, 0xdd, 0x51, 0xfa, 0x39, 0xfb, 0xeb,
  0x7f, 0x1d, 0x60, 0xdc, 0xf1, 0xed, 0xcb, 0xfb, 0xdb, 0x19, 0xdd, 0x5f,
  0xef, 0x37, 0xfd, 0xdd, 0x15, 0xc1, 0xc8, 0x3d, 0x55, 0xb9, 0xe2, 0x4e,
  0x25, 0x55, 0xb6, 0x3e, 0xef, 0xbd, 0xc2, 0xfc, 0x04, 0xeb, 0x29, 0x50,
  0xdd, 0xaf, 0xbf, 0x39, 0x18, 0x97, 0x09, 0x81, 0x98, 0x2c, 0x88, 0x28,
  0x07, 0xdc, 0x1b, 0x1f, 0xdd, 0xfb, 0x68, 0x1b, 0xcb, 0xdc, 0x06, 0x31,
  0x36, 0xc0, 0xac, 0xe9, 0xd4, 0x23, 0x1f, 0x1d, 0x2e, 0x7f, 0xd9, 0x11,
  0xb4, 0x16, 0x15, 0xdc, 0x28, 0x2c, 0xb9, 0xaf, 0xc1, 0xc4, 0xd6, 0x2d,
  0x03, 0x34, 0xcc, 0xde, 0x29, 0x32, 0xfa, 0x20, 0xdc, 0x0d, 0xfa, 0xf3,
  0x03, 0xeb, 0xe1, 0x7f, 0xfa, 0xf6, 0xd0, 0x31, 0xe7, 0xe5, 0x0a, 0x2e,
  0xb3, 0xf9, 0x9a, 0xbe, 0xd5, 0xba, 0xaa, 0x25, 0xcd, 0x09, 0x5b, 0xc9,
  0xd0, 0x02, 0x45, 0xf2, 0xfe, 0xec, 0xe5, 0x57, 0x51, 0x7f, 0xe5, 0xe6,
  0x2c, 0x15, 0x13, 0xc7, 0xcc, 0x58, 0xe1, 0x98, 0x5a, 0x92, 0x1a, 0xc9,
  0xfd, 0xd9, 0xaa, 0x0a, 0x05, 0x11, 0xe6, 0xc6, 0x33, 0xdc, 0x44, 0x4f,
  0xfb, 0x98, 0x81, 0xff, 0xfe, 0xbc, 0x84, 0x07, 0x31, 0x18, 0xdd, 0x97,
  0x08, 0x7f, 0xe3, 0xd4, 0x02, 0x1b, 0xb7, 0x31, 0x55, 0x3e, 0xd2, 0xd4,
  0xf6, 0xff, 0x2f, 0xd2, 0xc3, 0xbe, 0xca, 0x22, 0x96, 0xfb, 0xed, 0xdb,
  0x42, 0xc4, 0xf0, 0x43, 0xd8, 0xff, 0x0a, 0x02, 0xef, 0x7f, 0x9f, 0x54,
  0x4e, 0xc7, 0xf2, 0x25, 0xbf, 0x04, 0x1d, 0xb8, 0x06, 0xe9, 0xe6, 0xbb,
  0x34, 0xfa, 0x6b, 0xa0, 0x8d, 0x51, 0x06, 0x28, 0xd3, 0x36, 0x03, 0xda,
  0x1c, 0xcc, 0x81, 0x38, 0xfa, 0x2c, 0x33, 0xf7, 0xd7, 0x07, 0xf6, 0x44,
  0x3a, 0xcd, 0xd7, 0x41, 0x84, 0xe3, 0x11, 0x6b, 0xf7, 0xa5, 0x14, 0x07,
  0xd3, 0x39, 0x26, 0x48, 0xad, 0x33, 0xb0, 0x05, 0xd1, 0xef, 0xbb, 0x22,
  0x09, 0x30, 0x81, 0x34, 0xf9, 0x11, 0x30, 0x35, 0xf0, 0xc3, 0xd6, 0xf2,
  0x41, 0x5c, 0xfd, 0xea, 0xe2, 0xd6, 0xef, 0x67, 0xb7, 0xf9, 0xe9, 0x45,
  0xdd, 0x3b, 0x37, 0xe5, 0xcf, 0xa4, 0xe8, 0xea, 0x79, 0x70, 0x81, 0xfa,
  0x60, 0x7d, 0xcf, 0xb9, 0xd3, 0xe0, 0xb1, 0x6d, 0x7f, 0x04, 0xd7, 0xe1,
  0x8c, 0xca, 0x01, 0x15, 0xd0, 0xf0, 0x21, 0x22, 0xe8, 0xeb, 0x22, 0x2b,
  0xd7, 0xc0, 0x10, 0x0a, 0xd0, 0x8d, 0x14, 0x22, 0x07, 0xe2, 0xdc, 0x90,
  0x24, 0x0b, 0x07, 0x31, 0x2b, 0xbe, 0xe6, 0xdd, 0xc4, 0x60, 0xda, 0x40,
  0x03, 0xa2, 0xf4, 0x52, 0xc8, 0xdb, 0x5a, 0xf8, 0xdb, 0x4c, 0xf5, 0x33,
  0x03, 0x7f, 0x1e, 0x95, 0x7d, 0xaf, 0xc8, 0xfa, 0xf5, 0x21, 0x9c, 0x4a,
  0x47, 0xf6, 0xf9, 0x22, 0x03, 0x26, 0xdf, 0xbd, 0xf2, 0xff, 0x79, 0x97,
  0x9b, 0x05, 0xb9, 0xe9, 0xb1, 0xd2, 0x7f, 0xc6, 0x9f, 0x32, 0xf3, 0x3c,
  0x55, 0x39, 0x47, 0x81, 0x0c, 0x89, 0xe1, 0x9d, 0xc3, 0xd8, 0x77, 0xf7,
  0xed, 0x67, 0x0c, 0x02, 0x18, 0xe1, 0xb6, 0x2b, 0x27, 0x16, 0x12, 0xed,
  0x81, 0xf1, 0x48, 0xec, 0x19, 0xdb, 0x26, 0x50, 0x2c, 0x0b, 0xcb, 0xea,
  0x02, 0x8a, 0x4f, 0x40, 0x09, 0x6f, 0x6e, 0x8c, 0xc7, 0x52, 0xe4, 0x24,
  0x0f, 0x00, 0x20, 0xb2, 0x0c, 0xe0, 0x04, 0xf8, 0x4f, 0xcf, 0xf3, 0x10,
  0xd9, 0x07, 0x37, 0x1e, 0xe9, 0xaa, 0xfa, 0x0f, 0x2f, 0x44, 0xa4, 0x2d,
  0x0a, 0xfd, 0x2a, 0xec, 0x7f, 0x46, 0xd7, 0x2f, 0x43, 0xcb, 0x81, 0x0a,
  0x28, 0xf3, 0xd6, 0x0c, 0x9d, 0xdf, 0x25, 0x45, 0xed, 0xd1, 0xc8, 0x8b,
  0xd1, 0xfb, 0xd1, 0xd5, 0x59, 0x03, 0xd0, 0x15, 0x37, 0x1f, 0x3b, 0x07,
  0x18, 0xe9, 0x01, 0x7f, 0x1e, 0xce, 0x1f, 0x04, 0xd5, 0x0a, 0x0f, 0xe2,
  0x23, 0x1a, 0x35, 0x16, 0x4c, 0xeb, 0xc7, 0x30, 0x11, 0x0f, 0xeb, 0x24,
  0xea, 0x26, 0x1e, 0xc0, 0x07, 0xab, 0xf5, 0x0b, 0xf5, 0xdf, 0xe8, 0x53,
  0x81, 0x37, 0xf0, 0x30, 0xd3, 0x18, 0x1e, 0xa0, 0x3c, 0x7f, 0x22, 0xd6,
  0x58, 0xbe, 0x07, 0xbc, 0x3d, 0x76, 0xf1, 0x76, 0xba, 0xbb, 0xf9, 0x06,
  0x31, 0xf5, 0x6e, 0x10, 0xdd, 0xbe, 0xa9, 0x0f, 0x0e, 0x2e, 0x31, 0x7f,
  0xee, 0xdd, 0x1b, 0x19, 0x0d, 0x51, 0x34, 0xd3, 0xfa, 0xf9, 0x0c, 0x9d,
  0xc5, 0x70, 0xc0, 0x35, 0x21, 0x28, 0xab, 0xcf, 0x36, 0xd7, 0x1e, 0x0d,
  0x1a, 0x4a, 0x9f, 0xfd, 0x04, 0x31, 0x15, 0x26, 0xb0, 0xe1, 0x14, 0x1f,
  0x81, 0xa7, 0xdc, 0xbd, 0x27, 0x49, 0xfa, 0xec, 0x11, 0x02, 0x10, 0x14,
  0x06, 0x3c, 0xf1, 0x1c, 0xf6, 0xe1, 0xff, 0x30, 0x08, 0xea, 0xd1, 0xa9,
  0x7f, 0x2a, 0xfc, 0xdd, 0xe4, 0x10, 0xbf, 0x0f, 0x03, 0xd8, 0x9e, 0xd5,
  0x28, 0x36, 0x43, 0x67, 0xe2, 0xfa, 0x1d, 0xf0, 0x40, 0x51, 0xdd, 0xb7,
  0xe4, 0x0f, 0x06, 0x7f, 0x5a, 0xd0, 0x4b, 0x3a, 0x48, 0x16, 0xbe, 0xf5,
  0x8e, 0x76, 0xcb, 0x17, 0xc0, 0x94, 0x2a, 0x81, 0x1f, 0x63, 0x4e, 0xd2,
  0xef, 0xde, 0x6c, 0x03, 0xba, 0x06, 0x0a, 0x45, 0xc6, 0x0c, 0xf0, 0xd5,
  0xc3, 0xa5, 0xdb, 0xb8, 0x11, 0xfc, 0xf2, 0x7f, 0x0a, 0x14, 0xe8, 0x1c,
  0xef, 0xfb, 0xe5, 0xe0, 0x02, 0xf3, 0x0e, 0x20, 0x31, 0xb2, 0x01, 0xfa,
  0x04, 0xf2, 0x11, 0xfb, 0xe7, 0x36, 0xd7, 0xec, 0x02, 0xf3, 0xff, 0xff,
  0x04, 0x00, 0x00, 0x00, 0x00, 0x01, 0x00, 0x00, 0xb4, 0xfb, 0xff, 0xff,
  0x46, 0xf7, 0xff, 0xff, 0x53, 0xff, 0xff, 0xff, 0x60, 0xfb, 0xff, 0xff,
  0x40, 0xfa, 0xff, 0xff, 0xcf, 0xfe, 0xff, 0xff, 0x6d, 0xff, 0xff, 0xff,
  0x61, 0x01, 0x00, 0x00, 0x2c, 0xfb, 0xff, 0xff, 0x6f, 0xfd, 0xff, 0xff,
  0xa8, 0xf9, 0xff, 0xff, 0x4d, 0xfc, 0xff, 0xff, 0x74, 0xfd, 0xff, 0xff,
  0x85, 0xf8, 0xff, 0xff, 0x21, 0xfc, 0xff, 0xff, 0xc0, 0x01, 0x00, 0x00,
  0xa6, 0xfa, 0xff, 0xff, 0x96, 0x00, 0x00, 0x00, 0x4b, 0xfc, 0xff, 0xff,
  0xd1, 0xfc, 0xff, 0xff, 0xd8, 0xfe, 0xff, 0xff, 0x61, 0xfd, 0xff, 0xff,
  0x1e, 0xfa, 0xff, 0xff, 0x98, 0xf9, 0xff, 0xff, 0xeb, 0xfb, 0xff, 0xff,
  0x2b, 0xfb, 0xff, 0xff, 0x04, 0xfa, 0xff, 0xff, 0xf1, 0xfb, 0xff, 0xff,
  0x64, 0xfc, 0xff, 0xff, 0x9d, 0xf6, 0xff, 0xff, 0x88, 0xfb, 0xff, 0xff,
  0x15, 0xff, 0xff, 0xff, 0xd8, 0xfe, 0xff, 0xff, 0x93, 0xf9, 0xff, 0xff,
  0xc7, 0xfd, 0xff, 0xff, 0xd2, 0xfe, 0xff, 0xff, 0x15, 0xfb, 0xff, 0xff,
  0x60, 0xfb, 0xff, 0xff, 0x02, 0xff, 0xff, 0xff, 0xc1, 0xfe, 0xff, 0xff,
  0xba, 0xf9, 0xff, 0xff, 0xb6, 0xfe, 0xff, 0xff, 0x8a, 0xfd, 0xff, 0xff,
  0x50, 0xf8, 0xff, 0xff, 0x8b, 0xfc, 0xff, 0xff, 0xe8, 0xfb, 0xff, 0xff,
  0x5a, 0xfc, 0xff, 0xff, 0xa2, 0xff, 0xff, 0xff, 0x2e, 0x00, 0x00, 0x00,
  0xce, 0xfb, 0xff, 0xff, 0x41, 0xfb, 0xff, 0xff, 0x37, 0xfa, 0xff, 0xff,
  0x6a, 0xf5, 0xff, 0xff, 0xe0, 0xfa, 0xff, 0xff, 0x46, 0xfd, 0xff, 0xff,
  0x4e, 0xff, 0xff, 0xff, 0x62, 0xfe, 0xff, 0xff, 0x63, 0xfd, 0xff, 0xff,
  0x08, 0xfb, 0xff, 0xff, 0x78, 0xfe, 0xff, 0xff, 0x6a, 0xfd, 0xff, 0xff,
  0x8a, 0xf7, 0xff, 0xff, 0x54, 0xf2, 0xff, 0xff, 0x9d, 0xff, 0xff, 0xff,
  0x0e, 0xf4, 0xff, 0xff, 0x04, 0x00, 0x00, 0x00, 0x00, 0x08, 0x00, 0x00,
  0x22, 0xa6, 0x2c, 0xc7, 0xc4, 0x21, 0x0b, 0xc7, 0xe4, 0x60, 0xc4, 0xfa,
  0xe8, 0x21, 0x1a, 0x48, 0xa6, 0xc2, 0xf1, 0xf9, 0x0a, 0x1c, 0x2c, 0x2a,
  0x6c, 0xec, 0x21, 0x1c, 0xc8, 0x01, 0xee, 0xf7, 0xb0, 0x36, 0xff, 0xf6,
  0xfb, 0xd3, 0xec, 0x20, 0x0c, 0x29, 0x02, 0x14, 0x19, 0xb6, 0xc6, 0xa4,
  0xfa, 0x0f, 0x2a, 0xf0, 0xf1, 0xb3, 0xfb, 0xfd, 0x36, 0x0c, 0x18, 0x91,
  0xc7, 0xd4, 0x01, 0x7f, 0xb6, 0x3f, 0xaa, 0xfa, 0xbc, 0xfe, 0xda, 0x60,
  0xeb, 0xe9, 0x7f, 0x11, 0x54, 0xf0, 0xfe, 0xec, 0x0f, 0xc0, 0xed, 0xe9,
  0x2a, 0xa9, 0x9e, 0x63, 0x0b, 0xdc, 0xfa, 0xdc, 0x20, 0x1e, 0x54, 0xe8,
  0xba, 0xbb, 0xf6, 0xef, 0x10, 0x17, 0xd5, 0xfc, 0xdb, 0x06, 0x42, 0xd2,
  0x2f, 0x4e, 0xc2, 0x0e, 0x34, 0xf4, 0x23, 0x1a, 0x5c, 0x07, 0xc0, 0xcb,
  0xd9, 0xf4, 0x55, 0x13, 0x3b, 0xeb, 0x65, 0x02, 0xd3, 0x63, 0x84, 0x33,
  0xf0, 0x50, 0x47, 0xdd, 0xbf, 0xf8, 0x02, 0x02, 0x0e, 0x55, 0x26, 0x3b,
  0x56, 0xf1, 0xcc, 0x60, 0x18, 0xad, 0x10, 0x6c, 0xa3, 0xf6, 0xef, 0xee,
  0x09, 0xe9, 0xab, 0x0c, 0xe6, 0x20, 0xb2, 0xaa, 0x08, 0x45, 0x07, 0xca,
  0xf1, 0x12, 0x03, 0x42, 0x7f, 0x3d, 0x30, 0x2f, 0x47, 0x34, 0x5d, 0x8f,
  0x66, 0x0f, 0xc3, 0xab, 0xd7, 0xc3, 0x27, 0xcf, 0x31, 0x85, 0xf6, 0x21,
  0xa5, 0xf9, 0x0f, 0xf5, 0xb7, 0x09, 0xe4, 0x2a, 0xbb, 0xfd, 0xd8, 0x3e,
  0x32, 0xe2, 0xe2, 0xdd, 0x00, 0xdc, 0x20, 0xe7, 0xf2, 0x26, 0x81, 0x07,
  0x07, 0x27, 0x0c, 0xc6, 0x02, 0x03, 0x10, 0x28, 0xf9, 0xb6, 0xe5, 0xe2,
  0xcf, 0x2d, 0x00, 0x05, 0xd7, 0xda, 0xc8, 0xd2, 0xfe, 0x0c, 0x07, 0x2a,
  0xe8, 0x04, 0x0b, 0x29, 0xc9, 0x2a, 0xec, 0x28, 0x83, 0x0f, 0x05, 0xa4,
  0x11, 0x12, 0xfe, 0xf5, 0xbe, 0x51, 0x4d, 0x36, 0xf5, 0x02, 0xf2, 0xf4,
  0x3e, 0xe6, 0x1f, 0xc1, 0xee, 0xe1, 0xcf, 0xf7, 0xa3, 0xe5, 0xed, 0xcc,
  0x42, 0x2c, 0xc5, 0x0e, 0x3f, 0xc4, 0xb7, 0x20, 0x8a, 0x14, 0xfd, 0x36,
  0xed, 0xeb, 0x81, 0x34, 0xd8, 0x2b, 0x03, 0x51, 0xb1, 0xda, 0x1f, 0xec,
  0x85, 0xdd, 0xcb, 0xc2, 0x55, 0xc7, 0xe2, 0x25, 0xbd, 0x36, 0xcd, 0x5c,
  0xe3, 0xc5, 0xbf, 0xf3, 0xb1, 0x4b, 0x1c, 0xd5, 0x56, 0xfd, 0xb1, 0xd1,
  0x4a, 0x15, 0xe6, 0x3f, 0xff, 0xd2, 0x2d, 0xc7, 0xf0, 0xcb, 0xb9, 0x1b,
  0xe0, 0x2e, 0x01, 0xec, 0xd8, 0x8c, 0x37, 0x05, 0xf2, 0xaa, 0xe7, 0x2c,
  0x33, 0xcf, 0xfd, 0xf5, 0x11, 0x49, 0x3e, 0x81, 0x06, 0x16, 0xb5, 0x25,
  0x0d, 0x33, 0x96, 0x26, 0x26, 0x0b, 0x19, 0xd8, 0x17, 0x1f, 0xc1, 0x3a,
  0x07, 0x1c, 0x3b, 0xda, 0x1b, 0xd7, 0xf9, 0xcd, 0xc6, 0xdd, 0xb3, 0xee,
  0xe3, 0xbd, 0xec, 0xdc, 0x59, 0xfe, 0xc7, 0x0f, 0x14, 0x81, 0x0f, 0xff,
  0xe0, 0xca, 0xb8, 0xe2, 0xda, 0x22, 0x00, 0xf3, 0x21, 0x0c, 0x42, 0x13,
  0x49, 0x09, 0x15, 0x34, 0xb2, 0xf9, 0x9e, 0x92, 0x19, 0x5a, 0xfb, 0x08,
  0x98, 0x39, 0xec, 0x18, 0xd0, 0x14, 0xa5, 0x1b, 0xe9, 0x46, 0x78, 0x4d,
  0x45, 0xef, 0x32, 0x11, 0xcd, 0x0b, 0x47, 0x96, 0x52, 0xaf, 0xc3, 0x0d,
  0xdb, 0x0c, 0xd7, 0x18, 0xd8, 0xca, 0x1a, 0xc5, 0x4b, 0xef, 0x4f, 0x06,
  0xd9, 0xdc, 0x47, 0x0c, 0xfd, 0xea, 0x81, 0x2e, 0x1e, 0x0f, 0xd2, 0x2e,
  0xcd, 0xfe, 0xe9, 0xb9, 0xfe, 0xef, 0xad, 0xda, 0x1b, 0x1e, 0xe2, 0xe0,
  0xd2, 0x5b, 0xfb, 0x41, 0x8d, 0x22, 0x17, 0x24, 0x0e, 0x0e, 0xee, 0xf9,
  0x3c, 0x51, 0x2f, 0x13, 0x14, 0xd7, 0xcf, 0x26, 0xcd, 0xc3, 0xf6, 0xe6,
  0x09, 0x19, 0xd6, 0x0d, 0x48, 0x9c, 0x02, 0x2e, 0xde, 0x21, 0x1c, 0x56,
  0x94, 0x41, 0xe2, 0x08, 0x22, 0x36, 0xcc, 0x5a, 0x18, 0xae, 0xd9, 0x26,
  0xd3, 0x9f, 0x3f, 0xf4, 0x06, 0x4a, 0xd3, 0xf4, 0xc5, 0xfd, 0xc8, 0xda,
  0xf7, 0x09, 0xf0, 0x62, 0xa9, 0xd3, 0xb4, 0x47, 0xc6, 0xf6, 0x11, 0x2a,
  0xd7, 0xe7, 0xde, 0x25, 0x20, 0x17, 0x91, 0xed, 0xfb, 0xe0, 0xca, 0x1a,
  0xf1, 0xe0, 0x31, 0x18, 0xf3, 0x15, 0xba, 0x15, 0x81, 0x3b, 0x22, 0xb4,
  0xc5, 0x33, 0xd6, 0x02, 0xdb, 0xe3, 0xea, 0xbe, 0x14, 0x14, 0x01, 0x26,
  0x1e, 0xec, 0xe7, 0x1e, 0x1b, 0x2e, 0x3c, 0x81, 0x02, 0xf5, 0x1d, 0xe7,
  0x14, 0xfb, 0xf0, 0x0c, 0xc6, 0x3c, 0x19, 0x08, 0xbd, 0xfe, 0xdf, 0x3b,
  0x0a, 0xec, 0x23, 0x0a, 0xea, 0xda, 0xef, 0xee, 0x11, 0xea, 0x0a, 0xf1,
  0xfb, 0xff, 0x01, 0x14, 0x14, 0x03, 0x01, 0x22, 0x17, 0x29, 0xee, 0xd3,
  0x15, 0x20, 0xef, 0xf8, 0x3f, 0xb5, 0x09, 0xff, 0x40, 0x10, 0x19, 0xea,
  0x81, 0xf5, 0xc0, 0x23, 0xc0, 0x44, 0xe8, 0xe1, 0x29, 0x24, 0x08, 0xf0,
  0x29, 0x1b, 0x28, 0xfd, 0xad, 0x2e, 0x35, 0x3a, 0xf6, 0x31, 0xe5, 0xd7,
  0xc5, 0xc7, 0x3c, 0x01, 0xe5, 0xdd, 0xcb, 0xd8, 0x28, 0x00, 0x06, 0xa0,
  0xf2, 0xea, 0xec, 0xbc, 0xba, 0xed, 0xd5, 0x2d, 0x33, 0xf5, 0x27, 0x48,
  0x0a, 0x10, 0x25, 0xf4, 0x08, 0x16, 0x0d, 0xb5, 0x7f, 0xc9, 0x47, 0x17,
  0x44, 0x1f, 0x4a, 0x17, 0xf2, 0x42, 0xf8, 0x07, 0xc2, 0x0a, 0x99, 0xec,
  0xf5, 0x11, 0xdd, 0xe0, 0xf3, 0x44, 0x0c, 0xea, 0xbf, 0x1b, 0x16, 0xc3,
  0xbf, 0x44, 0x5a, 0xc2, 0x26, 0x65, 0x28, 0xde, 0x29, 0x50, 0x01, 0xd0,
  0x4b, 0x00, 0xc6, 0x9d, 0xdc, 0xdd, 0x33, 0xea, 0xcf, 0x1a, 0x22, 0x58,
  0x09, 0xb3, 0x47, 0xaf, 0xfa, 0xe5, 0x3f, 0x15, 0x0b, 0x10, 0xf4, 0x22,
  0x34, 0x18, 0x04, 0xdf, 0xcb, 0xa0, 0x81, 0xd5, 0xe9, 0x5f, 0x0a, 0x19,
  0x9b, 0x3a, 0x01, 0x1b, 0xce, 0x1b, 0x10, 0x4c, 0x1c, 0x52, 0x03, 0xe3,
  0x3a, 0x0d, 0x22, 0xda, 0xfe, 0x06, 0xdd, 0xf9, 0x31, 0x09, 0xf2, 0x0f,
  0x1d, 0xa2, 0xd4, 0x06, 0x0e, 0xcf, 0x0e, 0x04, 0x83, 0xac, 0xd5, 0xdb,
  0xe3, 0x24, 0x17, 0x12, 0x0d, 0x33, 0x0d, 0x2f, 0x3f, 0x20, 0xd3, 0x31,
  0xa3, 0xdf, 0xdb, 0x56, 0x3b, 0xef, 0xc4, 0xc0, 0x01, 0xe9, 0xdb, 0xf6,
  0xba, 0xdc, 0x1e, 0x18, 0xeb, 0xf9, 0xdb, 0x81, 0xe5, 0x22, 0xfa, 0x11,
  0x05, 0xd5, 0x2c, 0x0c, 0x92, 0x46, 0xd1, 0xff, 0xcc, 0x29, 0xad, 0x94,
  0x03, 0x9f, 0xfd, 0xcd, 0xe0, 0x18, 0xf8, 0xd8, 0x5c, 0x41, 0xa1, 0xc1,
  0x25, 0xc5, 0x2f, 0x91, 0xa9, 0xf7, 0x4a, 0xf0, 0xe7, 0x5b, 0xba, 0x21,
  0x2e, 0xdb, 0x10, 0x41, 0x57, 0x2d, 0x0f, 0xee, 0x0f, 0xfb, 0x9f, 0xca,
  0x15, 0xdf, 0x27, 0x12, 0xdf, 0xcc, 0xb7, 0xe4, 0xc1, 0x19, 0xa1, 0xe4,
  0x10, 0xed, 0x9f, 0xbe, 0x30, 0x5b, 0x42, 0xfb, 0x9f, 0x36, 0x1c, 0xd1,
  0xe9, 0x1d, 0x12, 0xb9, 0x07, 0x4d, 0x11, 0x13, 0xb4, 0x0d, 0x21, 0x2b,
  0xfa, 0xc4, 0x1e, 0xa4, 0x29, 0x2e, 0x99, 0x4d, 0x81, 0x85, 0x38, 0x93,
  0x06, 0xd4, 0xbe, 0x26, 0xc8, 0x21, 0xe7, 0x04, 0x29, 0x08, 0x67, 0x14,
  0xc7, 0x4b, 0x6d, 0x4d, 0x28, 0x5b, 0x7f, 0x3b, 0x1f, 0x47, 0xfa, 0xd2,
  0x1a, 0x12, 0x12, 0x65, 0xc9, 0xce, 0xd0, 0xa6, 0x2c, 0xd6, 0x1b, 0x3f,
  0x2b, 0xa6, 0xf1, 0xd1, 0x10, 0xb1, 0xe6, 0x3f, 0x91, 0x34, 0x99, 0xe5,
  0xd7, 0xcd, 0x28, 0x0b, 0x5c, 0xfc, 0x2d, 0x14, 0x04, 0xf8, 0x9c, 0xaf,
  0xce, 0xc4, 0x3e, 0xff, 0x13, 0x17, 0x21, 0x0e, 0xf1, 0x66, 0x9d, 0xde,
  0x03, 0xdf, 0x9d, 0xc2, 0x6d, 0x2d, 0x04, 0xf4, 0xf9, 0x1e, 0xaf, 0xb5,
  0xd8, 0x3b, 0xc2, 0x2c, 0x81, 0x4f, 0x3e, 0xc4, 0x2f, 0x2d, 0x27, 0xfd,
  0x13, 0x18, 0x10, 0xe8, 0xd0, 0x0a, 0x15, 0xa1, 0xa8, 0xd6, 0xbd, 0x27,
  0x12, 0x20, 0x28, 0x12, 0x3d, 0xeb, 0xcd, 0xfd, 0x56, 0xe8, 0xd9, 0xff,
  0xd0, 0xb5, 0x3a, 0xd0, 0xda, 0x26, 0xff, 0x03, 0xfc, 0xe0, 0xe0, 0x39,
  0xdf, 0x5d, 0x1a, 0x3b, 0xe3, 0x3a, 0x01, 0xa1, 0x03, 0x43, 0xeb, 0xf2,
  0x50, 0xe1, 0xc1, 0x2c, 0x35, 0xe1, 0xf2, 0x90, 0x21, 0xe1, 0xad, 0x3d,
  0x93, 0xfc, 0xd4, 0xe1, 0x30, 0x98, 0xfd, 0x25, 0x81, 0x14, 0xd2, 0x3a,
  0xf2, 0xac, 0x14, 0xdc, 0x2f, 0x39, 0x2a, 0xb3, 0xf1, 0xd9, 0x0f, 0xa4,
  0xcd, 0x12, 0xeb, 0x11, 0x08, 0x23, 0x6e, 0x46, 0x0c, 0x10, 0xd6, 0x57,
  0xd8, 0x5d, 0x00, 0xe1, 0xa3, 0x26, 0x0a, 0xec, 0xf8, 0x34, 0xc6, 0xa2,
  0x3c, 0xc9, 0xd7, 0x9e, 0xdd, 0x1b, 0xd7, 0x09, 0xbb, 0x1d, 0xd8, 0xe2,
  0x2d, 0xcf, 0x0c, 0x81, 0xf2, 0x01, 0x1c, 0x1a, 0xfb, 0x43, 0x38, 0xf3,
  0x16, 0x09, 0xec, 0x30, 0x34, 0x16, 0xe7, 0x31, 0xc5, 0xe2, 0xf5, 0xfe,
  0x3c, 0xce, 0x9e, 0x1b, 0xb3, 0x17, 0x33, 0x30, 0xd6, 0xc3, 0xf5, 0xf6,
  0x0a, 0x02, 0xec, 0xf7, 0x0f, 0xf6, 0x1a, 0xe9, 0x3d, 0xfa, 0xf1, 0xe1,
  0x8c, 0xec, 0x12, 0x3d, 0x06, 0xe7, 0xae, 0x25, 0x14, 0x0c, 0xcb, 0x05,
  0xc9, 0xc0, 0xd2, 0xe4, 0xf5, 0x1f, 0x10, 0xe0, 0x2b, 0xfa, 0x00, 0x0e,
  0x42, 0xf0, 0x24, 0x13, 0xff, 0x09, 0x28, 0xe5, 0x1b, 0x9b, 0xf9, 0xfa,
  0xe1, 0xd5, 0x0e, 0x13, 0xfb, 0x39, 0xe0, 0xf8, 0x10, 0x28, 0x2c, 0x0b,
  0x1a, 0x10, 0x1f, 0x2c, 0xec, 0xec, 0xe9, 0xbf, 0xf3, 0xf4, 0xe8, 0xc8,
  0xe7, 0xfc, 0x1d, 0x0c, 0xe5, 0xae, 0x44, 0x81, 0x9c, 0x0c, 0x0b, 0x06,
  0x1f, 0x1e, 0x0a, 0x41, 0x53, 0xe0, 0xd3, 0x15, 0x1e, 0x25, 0x0a, 0xee,
  0x08, 0xc3, 0xec, 0xb5, 0xf2, 0xb5, 0xd9, 0x05, 0x24, 0x81, 0xf2, 0xfa,
  0xdd, 0x03, 0x43, 0x02, 0xf1, 0x23, 0xe0, 0xe9, 0xeb, 0x07, 0x22, 0x26,
  0xf8, 0xf8, 0x2a, 0xbc, 0xd1, 0x1e, 0x11, 0xe9, 0xe7, 0x07, 0xdf, 0x2e,
  0xf5, 0x17, 0x21, 0xe9, 0xec, 0x0b, 0x07, 0xfb, 0x59, 0xe9, 0xef, 0xf4,
  0x6d, 0x4a, 0x1e, 0x12, 0x15, 0x22, 0x9b, 0x17, 0x2f, 0xfa, 0xd9, 0x93,
  0x0e, 0x38, 0x3a, 0x46, 0x7f, 0xd2, 0x99, 0xaa, 0x18, 0x21, 0xf6, 0x71,
  0x06, 0x21, 0x32, 0xb1, 0x0e, 0xfa, 0x14, 0x1d, 0x35, 0xf3, 0xe5, 0x46,
  0xfc, 0xc7, 0x16, 0x0f, 0x2a, 0x20, 0x60, 0xf4, 0x3f, 0x25, 0xdd, 0xca,
  0x21, 0xc0, 0xda, 0xcf, 0xb8, 0xc8, 0xaa, 0x28, 0xba, 0xeb, 0xc1, 0x27,
  0x40, 0xbf, 0x0a, 0xda, 0xc2, 0x06, 0xe0, 0xf7, 0x57, 0xa2, 0x4f, 0xfa,
  0x37, 0xff, 0x47, 0xe4, 0xa9, 0xca, 0xfb, 0x0e, 0x43, 0xe6, 0xcb, 0x2d,
  0x04, 0x6b, 0xb5, 0x25, 0x2a, 0x1e, 0x22, 0xde, 0x15, 0x08, 0xee, 0x16,
  0x37, 0x48, 0xdb, 0x83, 0xe7, 0xe6, 0x32, 0x41, 0xd7, 0xb4, 0xba, 0x25,
  0xea, 0xfe, 0x15, 0xe8, 0x81, 0xee, 0xe6, 0xb0, 0x32, 0x4f, 0xd6, 0x2c,
  0x31, 0xcc, 0xd8, 0x0f, 0x16, 0x0e, 0xdb, 0xd9, 0x2c, 0x8e, 0xcd, 0x11,
  0xe9, 0xf4, 0xb4, 0xc3, 0xa8, 0x39, 0x96, 0x40, 0xe5, 0xbf, 0x17, 0x1d,
  0x9a, 0xfd, 0xc4, 0xfc, 0x26, 0xd9, 0x29, 0xe1, 0x15, 0x04, 0xf7, 0x30,
  0xb3, 0x22, 0xdb, 0x10, 0xab, 0x32, 0xe7, 0xf7, 0x1d, 0xe3, 0xaf, 0x11,
  0x27, 0x06, 0x19, 0xfe, 0x20, 0xd4, 0x6c, 0xaf, 0x08, 0x3a, 0x3f, 0x0e,
  0x08, 0x02, 0x35, 0x3d, 0x0b, 0x3a, 0xfe, 0x81, 0xb5, 0xdf, 0x2c, 0xe1,
  0xb6, 0x19, 0xef, 0xf5, 0x03, 0x03, 0x22, 0x20, 0x3a, 0x23, 0x2a, 0x2d,
  0x10, 0xa0, 0x2b, 0xe7, 0xc1, 0xf7, 0x21, 0xde, 0xfa, 0x48, 0x1b, 0x17,
  0x36, 0xdb, 0x48, 0xe7, 0xfa, 0x29, 0x50, 0xb3, 0xb6, 0x1f, 0xef, 0xc9,
  0xd2, 0x23, 0x03, 0xeb, 0x86, 0xe8, 0x9f, 0x0a, 0x2b, 0x44, 0x1b, 0x55,
  0x1b, 0x41, 0x27, 0x08, 0xfc, 0x08, 0xd4, 0xa0, 0x37, 0x24, 0x81, 0x5d,
  0x0c, 0x14, 0x0b, 0x46, 0x46, 0x81, 0xfe, 0xa1, 0xe4, 0x4f, 0xef, 0x28,
  0xa5, 0x00, 0xc9, 0xff, 0x01, 0xc3, 0x1c, 0xa3, 0x56, 0xbe, 0x1b, 0xf0,
  0xe2, 0xf9, 0xf2, 0x16, 0x03, 0x12, 0x4e, 0x5a, 0x0e, 0xf1, 0xe4, 0xe5,
  0x9d, 0x07, 0x17, 0x22, 0x2f, 0xee, 0xbd, 0x16, 0x0b, 0x1c, 0x23, 0xdb,
  0x15, 0x34, 0xfb, 0x02, 0x14, 0x3b, 0x91, 0xf1, 0x43, 0x19, 0xf3, 0xdf,
  0x3c, 0xd1, 0x43, 0x25, 0xe7, 0x13, 0xf4, 0xce, 0x39, 0xfe, 0xee, 0x3b,
  0xf2, 0xd9, 0x0b, 0xd8, 0x18, 0x56, 0xf8, 0xe9, 0x81, 0x39, 0xf7, 0x23,
  0x0d, 0x49, 0xeb, 0xfa, 0xcd, 0xdf, 0x0e, 0xf0, 0xcc, 0x47, 0x08, 0xd9,
  0x04, 0xe6, 0x10, 0x17, 0x33, 0x12, 0x29, 0xf4, 0x01, 0x2b, 0x0f, 0xf9,
  0x4d, 0xdd, 0xfc, 0x96, 0xb2, 0xed, 0xd9, 0x0f, 0x8a, 0xdd, 0x42, 0xfe,
  0xeb, 0xa7, 0x2a, 0x10, 0x17, 0x05, 0x3b, 0x1f, 0xef, 0x32, 0x16, 0xc8,
  0xec, 0x18, 0x37, 0x18, 0xfd, 0x42, 0x5d, 0x19, 0x3a, 0x0d, 0xe4, 0x35,
  0xc8, 0x2f, 0xf1, 0xff, 0xbc, 0x81, 0x2e, 0x1f, 0x01, 0xd7, 0x21, 0xde,
  0x12, 0xc4, 0xdd, 0x29, 0x1a, 0x19, 0x1b, 0x29, 0xd6, 0x7f, 0xc1, 0xe2,
  0xcb, 0xc3, 0xcd, 0x5d, 0x51, 0xc7, 0x4f, 0xbe, 0xda, 0x13, 0xe7, 0x1d,
  0x04, 0x1f, 0x1e, 0x00, 0x01, 0xda, 0xca, 0xe8, 0xc9, 0x2b, 0x34, 0xe4,
  0xee, 0xaa, 0xeb, 0xe3, 0x63, 0xf5, 0xe7, 0xc3, 0xea, 0x46, 0xe1, 0xdd,
  0xfb, 0x51, 0x66, 0xba, 0x43, 0x22, 0xd2, 0xb5, 0x5c, 0x31, 0x4c, 0x06,
  0xa1, 0x51, 0xf1, 0xe5, 0x16, 0x13, 0x18, 0x43, 0xb0, 0xe2, 0x29, 0xe2,
  0x25, 0x2b, 0x1c, 0x37, 0xce, 0x55, 0xa0, 0x93, 0xed, 0x3b, 0x24, 0xa7,
  0x04, 0x23, 0x3e, 0x02, 0xeb, 0xeb, 0xbc, 0x33, 0xe9, 0xfa, 0x53, 0x81,
  0x19, 0x90, 0x2d, 0x23, 0xf5, 0x25, 0xd0, 0x59, 0xf5, 0x21, 0xa7, 0xe3,
  0x4f, 0x59, 0x04, 0xb4, 0xdc, 0xdf, 0x47, 0xb6, 0xd2, 0xec, 0xea, 0x22,
  0x55, 0x34, 0xbd, 0x65, 0xcc, 0x56, 0xe9, 0x4a, 0x0c, 0x09, 0xed, 0x0f,
  0x3e, 0xb5, 0xe2, 0xb0, 0x36, 0xbf, 0xbb, 0xcb, 0x9a, 0x35, 0x42, 0xaf,
  0x15, 0xa8, 0x1a, 0x17, 0x3c, 0x2d, 0x0d, 0x2b, 0xbe, 0x8f, 0xad, 0x81,
  0x60, 0x17, 0xdb, 0x35, 0x54, 0xe7, 0xde, 0xeb, 0x16, 0xba, 0x2a, 0x6c,
  0x2e, 0x1c, 0x1a, 0x16, 0xc0, 0x00, 0xf7, 0xf2, 0x45, 0xeb, 0xd2, 0xd9,
  0x1c, 0xfd, 0x0b, 0xff, 0x17, 0x98, 0x0a, 0x34, 0xfc, 0x1f, 0x1d, 0x2c,
  0xdb, 0xe0, 0x03, 0xd6, 0xe2, 0xf9, 0xc9, 0xf2, 0xf6, 0xec, 0xca, 0x17,
  0x07, 0xe4, 0x1b, 0x50, 0xe8, 0x09, 0xcb, 0x39, 0xe6, 0x14, 0xce, 0xdf,
  0x0d, 0x22, 0xe1, 0x34, 0xe4, 0x13, 0xf0, 0x15, 0xf6, 0x1d, 0x81, 0x0a,
  0x0b, 0x4c, 0x29, 0xdb, 0x3e, 0xf3, 0xec, 0x04, 0x1c, 0xec, 0x10, 0xf4,
  0x26, 0x11, 0xaf, 0xd7, 0xe3, 0x1a, 0xfd, 0xd3, 0xb4, 0xf2, 0xdc, 0x2d,
  0xee, 0x2d, 0xff, 0xd5, 0x1f, 0xb9, 0x2e, 0x08, 0xf8, 0xc8, 0xff, 0x0c,
  0xf7, 0xf6, 0xe5, 0x20, 0x23, 0xd0, 0xac, 0x16, 0x1c, 0x07, 0x20, 0x32,
  0xf2, 0xbd, 0xdb, 0xce, 0x2a, 0x13, 0x1c, 0x07, 0xeb, 0x30, 0x46, 0xfd,
  0x02, 0x03, 0xd9, 0x0d, 0x81, 0xb9, 0x1b, 0xf6, 0x1a, 0xfc, 0xff, 0xff,
  0x04, 0x00, 0x00, 0x00, 0x80, 0x00, 0x00, 0x00, 0xc7, 0xfc, 0xff, 0xff,
  0xcd, 0x00, 0x00, 0x00, 0x48, 0xff, 0xff, 0xff, 0xb1, 0x04, 0x00, 0x00,
  0x50, 0x02, 0x00, 0x00, 0x46, 0xfd, 0xff, 0xff, 0x86, 0xf8, 0xff, 0xff,
  0x26, 0xfd, 0xff, 0xff, 0x40, 0x06, 0x00, 0x00, 0xf0, 0x05, 0x00, 0x00,
  0xfe, 0x00, 0x00, 0x00, 0x90, 0xfe, 0xff, 0xff, 0x5c, 0xfd, 0xff, 0xff,
  0x4f, 0x01, 0x00, 0x00, 0x2b, 0x00, 0x00, 0x00, 0xc1, 0x06, 0x00, 0x00,
  0x7a, 0x02, 0x00, 0x00, 0x96, 0xf9, 0xff, 0xff, 0x01, 0x00, 0x00, 0x00,
  0x6a, 0xff, 0xff, 0xff, 0x0b, 0x04, 0x00, 0x00, 0x8c, 0x03, 0x00, 0x00,
  0x18, 0xfb, 0xff, 0xff, 0xb1, 0x02, 0x00, 0x00, 0x52, 0xfe, 0xff, 0xff,
  0x53, 0xfc, 0xff, 0xff, 0x3c, 0x01, 0x00, 0x00, 0xd0, 0x02, 0x00, 0x00,
  0x41, 0xfb, 0xff, 0xff, 0x01, 0xfd, 0xff, 0xff, 0x5c, 0x01, 0x00, 0x00,
  0x61, 0x03, 0x00, 0x00, 0xa6, 0xfc, 0xff, 0xff, 0x04, 0x00, 0x00, 0x00,
  0x00, 0x02, 0x00, 0x00, 0x51, 0x0d, 0xf2, 0x9d, 0x3c, 0x27, 0x1b, 0xc3,
  0xe2, 0xb1, 0xba, 0xe3, 0x14, 0x81, 0x41, 0xf5, 0x0c, 0xfc, 0x64, 0x2e,
  0xeb, 0x4f, 0x1a, 0x31, 0x2c, 0x0b, 0xf9, 0xff, 0x0f, 0x14, 0x62, 0x69,
  0xbf, 0x9c, 0xf8, 0x7f, 0x48, 0x57, 0xff, 0xa1, 0x43, 0x27, 0x29, 0x4b,
  0xfc, 0x36, 0xde, 0x19, 0x69, 0xec, 0xd5, 0xff, 0x17, 0x23, 0xd9, 0x6c,
  0xf5, 0x96, 0x17, 0xf6, 0x00, 0xb2, 0xe2, 0x1d, 0x50, 0x21, 0x36, 0xff,
  0xba, 0xca, 0x9a, 0xed, 0xaf, 0xf2, 0x5c, 0xde, 0x3b, 0xbe, 0x7f, 0xb8,
  0xcd, 0x17, 0x67, 0xb3, 0xdd, 0x03, 0xc8, 0x0c, 0xcb, 0x27, 0xd5, 0x4b,
  0x42, 0xed, 0xcb, 0xff, 0xb7, 0x70, 0x36, 0x7f, 0x34, 0xa5, 0xc8, 0x2e,
  0x57, 0x49, 0xff, 0xe0, 0x0d, 0x17, 0x13, 0xfb, 0x0d, 0xa0, 0xd2, 0x39,
  0x57, 0x49, 0x74, 0xc9, 0x2f, 0xed, 0xbe, 0x17, 0xcc, 0x11, 0x57, 0xf1,
  0x25, 0xf2, 0x0a, 0xe6, 0x79, 0xed, 0x09, 0xe8, 0x03, 0x27, 0xb2, 0xc4,
  0x0d, 0x81, 0xd2, 0x34, 0xf1, 0xa2, 0x15, 0x00, 0x5d, 0x4a, 0xd1, 0xf6,
  0x10, 0x01, 0x12, 0x0f, 0xe9, 0xaf, 0x50, 0xe3, 0xbb, 0x07, 0x25, 0x53,
  0xc8, 0x55, 0xee, 0x07, 0xe6, 0x25, 0x4a, 0x25, 0xd3, 0xea, 0x7f, 0xe8,
  0x4d, 0x6b, 0x5b, 0x55, 0x1c, 0x64, 0x4f, 0x31, 0xf5, 0x65, 0x5e, 0xd2,
  0x56, 0x22, 0xbe, 0xd9, 0xcb, 0x2b, 0xf9, 0xe9, 0xdc, 0x52, 0x2b, 0x12,
  0xaa, 0xed, 0xfb, 0x18, 0xd3, 0xea, 0x7f, 0x09, 0x0d, 0x6c, 0xff, 0x41,
  0x16, 0x41, 0x5f, 0xe0, 0x01, 0xef, 0x3e, 0xec, 0xde, 0x64, 0xb2, 0xdb,
  0xa2, 0xd5, 0x29, 0xc8, 0xac, 0x55, 0x7f, 0x21, 0xeb, 0xbb, 0xba, 0x6c,
  0xa2, 0xfc, 0xf7, 0x0a, 0xdb, 0x2f, 0xa2, 0x00, 0x27, 0xe6, 0x17, 0xed,
  0x37, 0x06, 0xe6, 0x42, 0x5a, 0xa1, 0xfd, 0xd8, 0x44, 0xfa, 0xe4, 0xb9,
  0x07, 0xf3, 0x2a, 0x3d, 0xea, 0x33, 0xfe, 0x15, 0x21, 0xe1, 0xf2, 0x38,
  0x08, 0xdf, 0xe9, 0xc6, 0x7f, 0x0b, 0x06, 0xfb, 0x36, 0x0e, 0x15, 0x4d,
  0xe1, 0xdd, 0xdc, 0x04, 0xce, 0xe1, 0xd8, 0xf7, 0x1f, 0x59, 0xc9, 0xb5,
  0x0b, 0x3f, 0x4a, 0x12, 0x3f, 0x7f, 0xf4, 0xdb, 0x6a, 0x23, 0xdb, 0x59,
  0x8b, 0xc7, 0xae, 0x65, 0xc1, 0x3f, 0x2f, 0xfe, 0x2a, 0x14, 0x32, 0x70,
  0x30, 0xe2, 0x0f, 0xc6, 0xe9, 0x08, 0x03, 0xd3, 0xfc, 0xd5, 0x95, 0xdb,
  0xfb, 0x81, 0xb9, 0x37, 0x36, 0x87, 0xe8, 0x30, 0x6e, 0x7a, 0x8e, 0x0d,
  0xdd, 0x90, 0xac, 0xf2, 0xa8, 0xf7, 0x35, 0x9e, 0x12, 0x4c, 0x68, 0x12,
  0x15, 0xde, 0xb4, 0x19, 0x81, 0xa9, 0x1e, 0xda, 0xde, 0xa8, 0x19, 0x62,
  0xf1, 0xef, 0xd4, 0x1d, 0x0a, 0x6a, 0x48, 0xa5, 0x0f, 0x44, 0x32, 0xa2,
  0x2a, 0x48, 0x91, 0x39, 0x17, 0xf0, 0xad, 0xa0, 0xe1, 0xc2, 0xe6, 0x81,
  0x2a, 0xef, 0x14, 0x59, 0x2f, 0xf0, 0xd4, 0x59, 0x46, 0xf0, 0x13, 0xc9,
  0x34, 0x01, 0xc5, 0xb8, 0x0c, 0xc7, 0x36, 0x3f, 0x46, 0xa6, 0xe3, 0x38,
  0x1c, 0x7b, 0x7f, 0x3c, 0xa3, 0x23, 0x19, 0x34, 0xd2, 0xd2, 0xc9, 0x05,
  0xbd, 0x14, 0x3d, 0x25, 0x12, 0x14, 0xdc, 0xe5, 0x4d, 0xfb, 0xc0, 0x01,
  0x1b, 0x10, 0xbe, 0x4f, 0x26, 0x27, 0xa5, 0xfa, 0x1d, 0xdf, 0x02, 0x81,
  0xe7, 0xb2, 0x2f, 0x09, 0x03, 0x34, 0x2a, 0xe4, 0x25, 0x40, 0xf1, 0x39,
  0x11, 0x1c, 0x21, 0xc3, 0xfa, 0x1f, 0xd9, 0x1e, 0xd2, 0x09, 0x44, 0x32,
  0xeb, 0x16, 0xcf, 0x24, 0x23, 0xfc, 0xc5, 0xff, 0x82, 0x45, 0x5b, 0x56,
  0x3d, 0xa5, 0x66, 0x16, 0x3e, 0xb2, 0xc2, 0xda, 0x32, 0x17, 0x16, 0xed,
  0xd1, 0x34, 0xf0, 0x76, 0x3d, 0x3b, 0xa0, 0x1c, 0x7f, 0xab, 0x0c, 0xb7,
  0xb2, 0xfe, 0xff, 0xff, 0x04, 0x00, 0x00, 0x00, 0x40, 0x00, 0x00, 0x00,
  0xb4, 0x03, 0x00, 0x00, 0xea, 0x03, 0x00, 0x00, 0x99, 0x00, 0x00, 0x00,
  0xea, 0x07, 0x00, 0x00, 0x09, 0x06, 0x00, 0x00, 0xb9, 0xfb, 0xff, 0xff,
  0x97, 0x04, 0x00, 0x00, 0x8e, 0x04, 0x00, 0x00, 0x3c, 0x09, 0x00, 0x00,
  0x9a, 0x02, 0x00, 0x00, 0x97, 0x06, 0x00, 0x00, 0xfb, 0xf9, 0xff, 0xff,
  0xd0, 0x0a, 0x00, 0x00, 0x49, 0x0a, 0x00, 0x00, 0x4c, 0x07, 0x00, 0x00,
  0x65, 0x00, 0x00, 0x00, 0xfe, 0xfe, 0xff, 0xff, 0x04, 0x00, 0x00, 0x00,
  0x40, 0x00, 0x00, 0x00, 0x4e, 0x54, 0xe6, 0x81, 0x44, 0xf5, 0xc3, 0xf7,
  0x36, 0x05, 0xe0, 0xf6, 0x6e, 0x9b, 0x5f, 0x26, 0xba, 0x9c, 0x67, 0xaa,
  0xd0, 0x1a, 0x64, 0x6f, 0x63, 0x87, 0xb6, 0x21, 0xe0, 0x1c, 0x47, 0x7f,
  0xe4, 0x26, 0xba, 0x3d, 0x66, 0x93, 0xd8, 0xcb, 0x2e, 0xc2, 0x7f, 0x22,
  0xfc, 0x3a, 0xf9, 0xa6, 0x19, 0x7f, 0x43, 0xe1, 0xf0, 0x59, 0x76, 0xb4,
  0xb9, 0x0a, 0xec, 0x68, 0xad, 0xe2, 0xca, 0x3f, 0x4a, 0xff, 0xff, 0xff,
  0x04, 0x00, 0x00, 0x00, 0x10, 0x00, 0x00, 0x00, 0xd9, 0xfe, 0xff, 0xff,
  0x6e, 0x02, 0x00, 0x00, 0x8f, 0x01, 0x00, 0x00, 0x87, 0xfc, 0xff, 0xff,
  0x34, 0xff, 0xff, 0xff, 0x38, 0xff, 0xff, 0xff, 0x0f, 0x00, 0x00, 0x00,
  0x4d, 0x4c, 0x49, 0x52, 0x20, 0x43, 0x6f, 0x6e, 0x76, 0x65, 0x72, 0x74,
  0x65, 0x64, 0x2e, 0x00, 0x01, 0x00, 0x00, 0x00, 0x14, 0x00, 0x00, 0x00,
  0x00, 0x00, 0x0e, 0x00, 0x18, 0x00, 0x14, 0x00, 0x10, 0x00, 0x0c, 0x00,
  0x08, 0x00, 0x04, 0x00, 0x0e, 0x00, 0x00, 0x00, 0x14, 0x00, 0x00, 0x00,
  0x1c, 0x00, 0x00, 0x00, 0x70, 0x01, 0x00, 0x00, 0x74, 0x01, 0x00, 0x00,
  0x78, 0x01, 0x00, 0x00, 0x04, 0x00, 0x00, 0x00, 0x6d, 0x61, 0x69, 0x6e,
  0x00, 0x00, 0x00, 0x00, 0x05, 0x00, 0x00, 0x00, 0x18, 0x01, 0x00, 0x00,
  0xd0, 0x00, 0x00, 0x00, 0x88, 0x00, 0x00, 0x00, 0x50, 0x00, 0x00, 0x00,
  0x14, 0x00, 0x00, 0x00, 0x00, 0x00, 0x0e, 0x00, 0x1a, 0x00, 0x14, 0x00,
  0x10, 0x00, 0x0c, 0x00, 0x0b, 0x00, 0x04, 0x00, 0x0e, 0x00, 0x00, 0x00,
  0x1c, 0x00, 0x00, 0x00, 0x00, 0x00, 0x00, 0x09, 0x1c, 0x00, 0x00, 0x00,
  0x20, 0x00, 0x00, 0x00, 0x01, 0x00, 0x00, 0x00, 0x00, 0x00, 0x06, 0x00,
  0x08, 0x00, 0x04, 0x00, 0x06, 0x00, 0x00, 0x00, 0x00, 0x00, 0x80, 0x3f,
  0x01, 0x00, 0x00, 0x00, 0x0d, 0x00, 0x00, 0x00, 0x01, 0x00, 0x00, 0x00,
  0x0c, 0x00, 0x00, 0x00, 0x96, 0xff, 0xff, 0xff, 0x14, 0x00, 0x00, 0x00,
  0x00, 0x00, 0x00, 0x08, 0x10, 0x00, 0x00, 0x00, 0x14, 0x00, 0x00, 0x00,
  0x04, 0x00, 0x04, 0x00, 0x04, 0x00, 0x00, 0x00, 0x01, 0x00, 0x00, 0x00,
  0x0c, 0x00, 0x00, 0x00, 0x03, 0x00, 0x00, 0x00, 0x0b, 0x00, 0x00, 0x00,
  0x02, 0x00, 0x00, 0x00, 0x01, 0x00, 0x00, 0x00, 0xca, 0xff, 0xff, 0xff,
  0x10, 0x00, 0x00, 0x00, 0x00, 0x00, 0x00, 0x08, 0x10, 0x00, 0x00, 0x00,
  0x14, 0x00, 0x00, 0x00, 0x76, 0xff, 0xff, 0xff, 0x00, 0x00, 0x00, 0x01,
  0x01, 0x00, 0x00, 0x00, 0x0b, 0x00, 0x00, 0x00, 0x03, 0x00, 0x00, 0x00,
  0x0a, 0x00, 0x00, 0x00, 0x04, 0x00, 0x00, 0x00, 0x03, 0x00, 0x00, 0x00,
  0x00, 0x00, 0x0e, 0x00, 0x14, 0x00, 0x00, 0x00, 0x10, 0x00, 0x0c, 0x00,
  0x0b, 0x00, 0x04, 0x00, 0x0e, 0x00, 0x00, 0x00, 0x10, 0x00, 0x00, 0x00,
  0x00, 0x00, 0x00, 0x08, 0x10, 0x00, 0x00, 0x00, 0x14, 0x00, 0x00, 0x00,
  0xba, 0xff, 0xff, 0xff, 0x00, 0x00, 0x00, 0x01, 0x01, 0x00, 0x00, 0x00,
  0x0a, 0x00, 0x00, 0x00, 0x03, 0x00, 0x00, 0x00, 0x09, 0x00, 0x00, 0x00,
  0x06, 0x00, 0x00, 0x00, 0x05, 0x00, 0x00, 0x00, 0x00, 0x00, 0x0e, 0x00,
  0x16, 0x00, 0x00, 0x00, 0x10, 0x00, 0x0c, 0x00, 0x0b, 0x00, 0x04, 0x00,
  0x0e, 0x00, 0x00, 0x00, 0x18, 0x00, 0x00, 0x00, 0x00, 0x00, 0x00, 0x08,
  0x18, 0x00, 0x00, 0x00, 0x1c, 0x00, 0x00, 0x00, 0x00, 0x00, 0x06, 0x00,
  0x08, 0x00, 0x07, 0x00, 0x06, 0x00, 0x00, 0x00, 0x00, 0x00, 0x00, 0x01,
  0x01, 0x00, 0x00, 0x00, 0x09, 0x00, 0x00, 0x00, 0x03, 0x00, 0x00, 0x00,
  0x00, 0x00, 0x00, 0x00, 0x08, 0x00, 0x00, 0x00, 0x07, 0x00, 0x00, 0x00,
  0x01, 0x00, 0x00, 0x00, 0x0d, 0x00, 0x00, 0x00, 0x01, 0x00, 0x00, 0x00,
  0x00, 0x00, 0x00, 0x00, 0x0e, 0x00, 0x00, 0x00, 0x24, 0x11, 0x00, 0x00,
  0x84, 0x10, 0x00, 0x00, 0xe0, 0x0f, 0x00, 0x00, 0xcc, 0x0e, 0x00, 0x00,
  0xb0, 0x0d, 0x00, 0x00, 0xdc, 0x0b, 0x00, 0x00, 0x00, 0x0a, 0x00, 0x00,
  0xac, 0x06, 0x00, 0x00, 0x50, 0x03, 0x00, 0x00, 0x9c, 0x02, 0x00, 0x00,
  0xe0, 0x01, 0x00, 0x00, 0x24, 0x01, 0x00, 0x00, 0x80, 0x00, 0x00, 0x00,
  0x04, 0x00, 0x00, 0x00, 0x2a, 0xef, 0xff, 0xff, 0x00, 0x00, 0x00, 0x01,
  0x18, 0x00, 0x00, 0x00, 0x20, 0x00, 0x00, 0x00, 0x3c, 0x00, 0x00, 0x00,
  0x0e, 0x00, 0x00, 0x00, 0x00, 0x00, 0x00, 0x09, 0x50, 0x00, 0x00, 0x00,
  0x02, 0x00, 0x00, 0x00, 0xff, 0xff, 0xff, 0xff, 0x04, 0x00, 0x00, 0x00,
  0x14, 0xef, 0xff, 0xff, 0x08, 0x00, 0x00, 0x00, 0x10, 0x00, 0x00, 0x00,
  0x01, 0x00, 0x00, 0x00, 0x80, 0xff, 0xff, 0xff, 0xff, 0xff, 0xff, 0xff,
  0x01, 0x00, 0x00, 0x00, 0x00, 0x00, 0x80, 0x3b, 0x1b, 0x00, 0x00, 0x00,
  0x53, 0x74, 0x61, 0x74, 0x65, 0x66, 0x75, 0x6c, 0x50, 0x61, 0x72, 0x74,
  0x69, 0x74, 0x69, 0x6f, 0x6e, 0x65, 0x64, 0x43, 0x61, 0x6c, 0x6c, 0x5f,
  0x31, 0x3a, 0x30, 0x00, 0x02, 0x00, 0x00, 0x00, 0x01, 0x00, 0x00, 0x00,
  0x04, 0x00, 0x00, 0x00, 0xa2, 0xef, 0xff, 0xff, 0x00, 0x00, 0x00, 0x01,
  0x18, 0x00, 0x00, 0x00, 0x20, 0x00, 0x00, 0x00, 0x40, 0x00, 0x00, 0x00,
  0x0d, 0x00, 0x00, 0x00, 0x00, 0x00, 0x00, 0x09, 0x78, 0x00, 0x00, 0x00,
  0x02, 0x00, 0x00, 0x00, 0xff, 0xff, 0xff, 0xff, 0x04, 0x00, 0x00, 0x00,
  0x8c, 0xef, 0xff, 0xff, 0x08, 0x00, 0x00, 0x00, 0x14, 0x00, 0x00, 0x00,
  0x01, 0x00, 0x00, 0x00, 0xea, 0xff, 0xff, 0xff, 0xff, 0xff, 0xff, 0xff,
  0x00, 0x00, 0x00, 0x00, 0x01, 0x00, 0x00, 0x00, 0x50, 0x10, 0x95, 0x3d,
  0x3c, 0x00, 0x00, 0x00, 0x73, 0x65, 0x71, 0x75, 0x65, 0x6e, 0x74, 0x69,
  0x61, 0x6c, 0x5f, 0x31, 0x2f, 0x64, 0x65, 0x6e, 0x73, 0x65, 0x5f, 0x33,
  0x5f, 0x31, 0x2f, 0x4d, 0x61, 0x74, 0x4d, 0x75, 0x6c, 0x3b, 0x73, 0x65,
  0x71, 0x75, 0x65, 0x6e, 0x74, 0x69, 0x61, 0x6c, 0x5f, 0x31, 0x2f, 0x64,
  0x65, 0x6e, 0x73, 0x65, 0x5f, 0x33, 0x5f, 0x31, 0x2f, 0x42, 0x69, 0x61,
  0x73, 0x41, 0x64, 0x64, 0x00, 0x00, 0x00, 0x00, 0x02, 0x00, 0x00, 0x00,
  0x01, 0x00, 0x00, 0x00, 0x04, 0x00, 0x00, 0x00, 0x42, 0xf0, 0xff, 0xff,
  0x00, 0x00, 0x00, 0x01, 0x18, 0x00, 0x00, 0x00, 0x20, 0x00, 0x00, 0x00,
  0x3c, 0x00, 0x00, 0x00, 0x0c, 0x00, 0x00, 0x00, 0x00, 0x00, 0x00, 0x09,
  0x90, 0x00, 0x00, 0x00, 0x02, 0x00, 0x00, 0x00, 0xff, 0xff, 0xff, 0xff,
  0x10, 0x00, 0x00, 0x00, 0x2c, 0xf0, 0xff, 0xff, 0x08, 0x00, 0x00, 0x00,
  0x10, 0x00, 0x00, 0x00, 0x01, 0x00, 0x00, 0x00, 0x80, 0xff, 0xff, 0xff,
  0xff, 0xff, 0xff, 0xff, 0x01, 0x00, 0x00, 0x00, 0xd1, 0x1f, 0xe7, 0x3c,
  0x58, 0x00, 0x00, 0x00, 0x73, 0x65, 0x71, 0x75, 0x65, 0x6e, 0x74, 0x69,
  0x61, 0x6c, 0x5f, 0x31, 0x2f, 0x64, 0x65, 0x6e, 0x73, 0x65, 0x5f, 0x32,
  0x5f, 0x31, 0x2f, 0x4d, 0x61, 0x74, 0x4d, 0x75, 0x6c, 0x3b, 0x73, 0x65,
  0x71, 0x75, 0x65, 0x6e, 0x74, 0x69, 0x61, 0x6c, 0x5f, 0x31, 0x2f, 0x64,
  0x65, 0x6e, 0x73, 0x65, 0x5f, 0x32, 0x5f, 0x31, 0x2f, 0x52, 0x65, 0x6c,
  0x75, 0x3b, 0x73, 0x65, 0x71, 0x75, 0x65, 0x6e, 0x74, 0x69, 0x61, 0x6c,
  0x5f, 0x31, 0x2f, 0x64, 0x65, 0x6e, 0x73, 0x65, 0x5f, 0x32, 0x5f, 0x31,
  0x2f, 0x42, 0x69, 0x61, 0x73, 0x41, 0x64, 0x64, 0x00, 0x00, 0x00, 0x00,
  0x02, 0x00, 0x00, 0x00, 0x01, 0x00, 0x00, 0x00, 0x10, 0x00, 0x00, 0x00,
  0xfa, 0xf0, 0xff, 0xff, 0x00, 0x00, 0x00, 0x01, 0x18, 0x00, 0x00, 0x00,
  0x20, 0x00, 0x00, 0x00, 0x3c, 0x00, 0x00, 0x00, 0x0b, 0x00, 0x00, 0x00,
  0x00, 0x00, 0x00, 0x09, 0x90, 0x00, 0x00, 0x00, 0x02, 0x00, 0x00, 0x00,
  0xff, 0xff, 0xff, 0xff, 0x20, 0x00, 0x00, 0x00, 0xe4, 0xf0, 0xff, 0xff,
  0x08, 0x00, 0x00, 0x00, 0x10, 0x00, 0x00, 0x00, 0x01, 0x00, 0x00, 0x00,
  0x80, 0xff, 0xff, 0xff, 0xff, 0xff, 0xff, 0xff, 0x01, 0x00, 0x00, 0x00,
  0xd8, 0xb6, 0x90, 0x3c, 0x58, 0x00, 0x00, 0x00, 0x73, 0x65, 0x71, 0x75,
  0x65, 0x6e, 0x74, 0x69, 0x61, 0x6c, 0x5f, 0x31, 0x2f, 0x64, 0x65, 0x6e,
  0x73, 0x65, 0x5f, 0x31, 0x5f, 0x32, 0x2f, 0x4d, 0x61, 0x74, 0x4d, 0x75,
  0x6c, 0x3b, 0x73, 0x65, 0x71, 0x75, 0x65, 0x6e, 0x74, 0x69, 0x61, 0x6c,
  0x5f, 0x31, 0x2f, 0x64, 0x65, 0x6e, 0x73, 0x65, 0x5f, 0x31, 0x5f, 0x32,
  0x2f, 0x52, 0x65, 0x6c, 0x75, 0x3b, 0x73, 0x65, 0x71, 0x75, 0x65, 0x6e,
  0x74, 0x69, 0x61, 0x6c, 0x5f, 0x31, 0x2f, 0x64, 0x65, 0x6e, 0x73, 0x65,
  0x5f, 0x31, 0x5f, 0x32, 0x2f, 0x42, 0x69, 0x61, 0x73, 0x41, 0x64, 0x64,
  0x00, 0x00, 0x00, 0x00, 0x02, 0x00, 0x00, 0x00, 0x01, 0x00, 0x00, 0x00,
  0x20, 0x00, 0x00, 0x00, 0xb2, 0xf1, 0xff, 0xff, 0x00, 0x00, 0x00, 0x01,
  0x18, 0x00, 0x00, 0x00, 0x20, 0x00, 0x00, 0x00, 0x3c, 0x00, 0x00, 0x00,
  0x0a, 0x00, 0x00, 0x00, 0x00, 0x00, 0x00, 0x09, 0x88, 0x00, 0x00, 0x00,
  0x02, 0x00, 0x00, 0x00, 0xff, 0xff, 0xff, 0xff, 0x40, 0x00, 0x00, 0x00,
  0x9c, 0xf1, 0xff, 0xff, 0x08, 0x00, 0x00, 0x00, 0x10, 0x00, 0x00, 0x00,
  0x01, 0x00, 0x00, 0x00, 0x80, 0xff, 0xff, 0xff, 0xff, 0xff, 0xff, 0xff,
  0x01, 0x00, 0x00, 0x00, 0x55, 0xfd, 0x91, 0x3c, 0x52, 0x00, 0x00, 0x00,
  0x73, 0x65, 0x71, 0x75, 0x65, 0x6e, 0x74, 0x69, 0x61, 0x6c, 0x5f, 0x31,
  0x2f, 0x64, 0x65, 0x6e, 0x73, 0x65, 0x5f, 0x31, 0x2f, 0x4d, 0x61, 0x74,
  0x4d, 0x75, 0x6c, 0x3b, 0x73, 0x65, 0x71, 0x75, 0x65, 0x6e, 0x74, 0x69,
  0x61, 0x6c, 0x5f, 0x31, 0x2f, 0x64, 0x65, 0x6e, 0x73, 0x65, 0x5f, 0x31,
  0x2f, 0x52, 0x65, 0x6c, 0x75, 0x3b, 0x73, 0x65, 0x71, 0x75, 0x65, 0x6e,
  0x74, 0x69, 0x61, 0x6c, 0x5f, 0x31, 0x2f, 0x64, 0x65, 0x6e, 0x73, 0x65,
  0x5f, 0x31, 0x2f, 0x42, 0x69, 0x61, 0x73, 0x41, 0x64, 0x64, 0x00, 0x00,
  0x02, 0x00, 0x00, 0x00, 0x01, 0x00, 0x00, 0x00, 0x40, 0x00, 0x00, 0x00,
  0xfe, 0xf2, 0xff, 0xff, 0x00, 0x00, 0x00, 0x01, 0x14, 0x00, 0x00, 0x00,
  0x28, 0x03, 0x00, 0x00, 0x09, 0x00, 0x00, 0x00, 0x00, 0x00, 0x00, 0x09,
  0x34, 0x03, 0x00, 0x00, 0x3c, 0xf2, 0xff, 0xff, 0x08, 0x00, 0x00, 0x00,
  0x0c, 0x02, 0x00, 0x00, 0x40, 0x00, 0x00, 0x00, 0x00, 0x00, 0x00, 0x00,
  0x00, 0x00, 0x00, 0x00, 0x00, 0x00, 0x00, 0x00, 0x00, 0x00, 0x00, 0x00,
  0x00, 0x00, 0x00, 0x00, 0x00, 0x00, 0x00, 0x00, 0x00, 0x00, 0x00, 0x00,
  0x00, 0x00, 0x00, 0x00, 0x00, 0x00, 0x00, 0x00, 0x00, 0x00, 0x00, 0x00,
  0x00, 0x00, 0x00, 0x00, 0x00, 0x00, 0x00, 0x00, 0x00, 0x00, 0x00, 0x00,
  0x00, 0x00, 0x00, 0x00, 0x00, 0x00, 0x00, 0x00, 0x00, 0x00, 0x00, 0x00,
  0x00, 0x00, 0x00, 0x00, 0x00, 0x00, 0x00, 0x00, 0x00, 0x00, 0x00, 0x00,
  0x00, 0x00, 0x00, 0x00, 0x00, 0x00, 0x00, 0x00, 0x00, 0x00, 0x00, 0x00,
  0x00, 0x00, 0x00, 0x00, 0x00, 0x00, 0x00, 0x00, 0x00, 0x00, 0x00, 0x00,
  0x00, 0x00, 0x00, 0x00, 0x00, 0x00, 0x00, 0x00, 0x00, 0x00, 0x00, 0x00,
  0x00, 0x00, 0x00, 0x00, 0x00, 0x00, 0x00, 0x00, 0x00, 0x00, 0x00, 0x00,
  0x00, 0x00, 0x00, 0x00, 0x00, 0x00, 0x00, 0x00, 0x00, 0x00, 0x00, 0x00,
  0x00, 0x00, 0x00, 0x00, 0x00, 0x00, 0x00, 0x00, 0x00, 0x00, 0x00, 0x00,
  0x00, 0x00, 0x00, 0x00, 0x00, 0x00, 0x00, 0x00, 0x00, 0x00, 0x00, 0x00,
  0x00, 0x00, 0x00, 0x00, 0x00, 0x00, 0x00, 0x00, 0x00, 0x00, 0x00, 0x00,
  0x00, 0x00, 0x00, 0x00, 0x00, 0x00, 0x00, 0x00, 0x00, 0x00, 0x00, 0x00,
  0x00, 0x00, 0x00, 0x00, 0x00, 0x00, 0x00, 0x00, 0x00, 0x00, 0x00, 0x00,
  0x00, 0x00, 0x00, 0x00, 0x00, 0x00, 0x00, 0x00, 0x00, 0x00, 0x00, 0x00,
  0x00, 0x00, 0x00, 0x00, 0x00, 0x00, 0x00, 0x00, 0x00, 0x00, 0x00, 0x00,
  0x00, 0x00, 0x00, 0x00, 0x00, 0x00, 0x00, 0x00, 0x00, 0x00, 0x00, 0x00,
  0x00, 0x00, 0x00, 0x00, 0x00, 0x00, 0x00, 0x00, 0x00, 0x00, 0x00, 0x00,
  0x00, 0x00, 0x00, 0x00, 0x00, 0x00, 0x00, 0x00, 0x00, 0x00, 0x00, 0x00,
  0x00, 0x00, 0x00, 0x00, 0x00, 0x00, 0x00, 0x00, 0x00, 0x00, 0x00, 0x00,
  0x00, 0x00, 0x00, 0x00, 0x00, 0x00, 0x00, 0x00, 0x00, 0x00, 0x00, 0x00,
  0x00, 0x00, 0x00, 0x00, 0x00, 0x00, 0x00, 0x00, 0x00, 0x00, 0x00, 0x00,
  0x00, 0x00, 0x00, 0x00, 0x00, 0x00, 0x00, 0x00, 0x00, 0x00, 0x00, 0x00,
  0x00, 0x00, 0x00, 0x00, 0x00, 0x00, 0x00, 0x00, 0x00, 0x00, 0x00, 0x00,
  0x00, 0x00, 0x00, 0x00, 0x00, 0x00, 0x00, 0x00, 0x00, 0x00, 0x00, 0x00,
  0x00, 0x00, 0x00, 0x00, 0x00, 0x00, 0x00, 0x00, 0x00, 0x00, 0x00, 0x00,
  0x00, 0x00, 0x00, 0x00, 0x00, 0x00, 0x00, 0x00, 0x00, 0x00, 0x00, 0x00,
  0x00, 0x00, 0x00, 0x00, 0x00, 0x00, 0x00, 0x00, 0x00, 0x00, 0x00, 0x00,
  0x00, 0x00, 0x00, 0x00, 0x00, 0x00, 0x00, 0x00, 0x00, 0x00, 0x00, 0x00,
  0x00, 0x00, 0x00, 0x00, 0x00, 0x00, 0x00, 0x00, 0x00, 0x00, 0x00, 0x00,
  0x00, 0x00, 0x00, 0x00, 0x00, 0x00, 0x00, 0x00, 0x00, 0x00, 0x00, 0x00,
  0x00, 0x00, 0x00, 0x00, 0x00, 0x00, 0x00, 0x00, 0x00, 0x00, 0x00, 0x00,
  0x00, 0x00, 0x00, 0x00, 0x00, 0x00, 0x00, 0x00, 0x00, 0x00, 0x00, 0x00,
  0x00, 0x00, 0x00, 0x00, 0x00, 0x00, 0x00, 0x00, 0x00, 0x00, 0x00, 0x00,
  0x00, 0x00, 0x00, 0x00, 0x00, 0x00, 0x00, 0x00, 0x00, 0x00, 0x00, 0x00,
  0x00, 0x00, 0x00, 0x00, 0x00, 0x00, 0x00, 0x00, 0x00, 0x00, 0x00, 0x00,
  0x00, 0x00, 0x00, 0x00, 0x00, 0x00, 0x00, 0x00, 0x00, 0x00, 0x00, 0x00,
  0x00, 0x00, 0x00, 0x00, 0x00, 0x00, 0x00, 0x00, 0x00, 0x00, 0x00, 0x00,
  0x00, 0x00, 0x00, 0x00, 0x00, 0x00, 0x00, 0x00, 0x00, 0x00, 0x00, 0x00,
  0x00, 0x00, 0x00, 0x00, 0x00, 0x00, 0x00, 0x00, 0x00, 0x00, 0x00, 0x00,
  0x00, 0x00, 0x00, 0x00, 0x00, 0x00, 0x00, 0x00, 0x40, 0x00, 0x00, 0x00,
  0xb8, 0xa6, 0x93, 0x3b, 0xed, 0xa9, 0x3f, 0x3b, 0x6b, 0x91, 0x83, 0x3b,
  0x72, 0xc4, 0x61, 0x3b, 0x3d, 0x54, 0x45, 0x3b, 0x78, 0x53, 0x5b, 0x3b,
  0x18, 0xe4, 0x68, 0x3b, 0x2f, 0x62, 0x58, 0x3b, 0x46, 0xce, 0x6f, 0x3b,
  0x5d, 0x25, 0x43, 0x3b, 0x50, 0xfb, 0x51, 0x3b, 0x78, 0xa5, 0x3d, 0x3b,
  0xff, 0x9d, 0x6f, 0x3b, 0x6e, 0x30, 0x34, 0x3b, 0x4e, 0x23, 0x78, 0x3b,
  0x97, 0xa2, 0x39, 0x3b, 0x4c, 0x83, 0x5e, 0x3b, 0x45, 0x6d, 0x88, 0x3b,
  0x4a, 0xc9, 0x49, 0x3b, 0xaa, 0x47, 0x7b, 0x3b, 0x14, 0xd3, 0x5b, 0x3b,
  0x64, 0x70, 0x7b, 0x3b, 0x6f, 0x03, 0x4d, 0x3b, 0x5e, 0xda, 0x5b, 0x3b,
  0x94, 0xc9, 0x45, 0x3b, 0x8d, 0x17, 0x45, 0x3b, 0x0c, 0xe8, 0x3b, 0x3b,
  0xc1, 0xdf, 0x54, 0x3b, 0x78, 0xfd, 0x43, 0x3b, 0x37, 0x8c, 0x43, 0x3b,
  0xd6, 0x5b, 0x31, 0x3b, 0xf5, 0x56, 0x4a, 0x3b, 0x12, 0x9f, 0x46, 0x3b,
  0xe5, 0xbf, 0x8b, 0x3b, 0x0d, 0x12, 0x44, 0x3b, 0xe3, 0x8f, 0x8e, 0x3b,
  0x5c, 0x8d, 0x3b, 0x3b, 0x3e, 0xe9, 0x46, 0x3b, 0x7e, 0x21, 0x33, 0x3b,
  0x47, 0x6f, 0x4b, 0x3b, 0xa8, 0xd8, 0x75, 0x3b, 0xae, 0x8f, 0x6f, 0x3b,
  0x3c, 0x64, 0x5e, 0x3b, 0x8c, 0x1f, 0x46, 0x3b, 0xed, 0x92, 0x69, 0x3b,
  0x57, 0xcf, 0x38, 0x3b, 0x74, 0xb7, 0x58, 0x3b, 0x39, 0x93, 0x64, 0x3b,
  0x7f, 0xd2, 0x31, 0x3b, 0xf0, 0x11, 0x39, 0x3b, 0xdd, 0x21, 0x45, 0x3b,
  0x5e, 0xe3, 0x48, 0x3b, 0x35, 0x86, 0x35, 0x3b, 0xb8, 0xff, 0x31, 0x3b,
  0x30, 0x09, 0x71, 0x3b, 0x72, 0xed, 0x54, 0x3b, 0xbd, 0x60, 0x9b, 0x3b,
  0x0b, 0xc2, 0x35, 0x3b, 0x22, 0x22, 0x6a, 0x3b, 0xc1, 0xf3, 0x5a, 0x3b,
  0x74, 0x0f, 0x79, 0x3b, 0x23, 0x7c, 0x4e, 0x3b, 0x3c, 0x8c, 0x15, 0x3b,
  0x83, 0xda, 0xcc, 0x3b, 0x12, 0x00, 0x00, 0x00, 0x74, 0x66, 0x6c, 0x2e,
  0x70, 0x73, 0x65, 0x75, 0x64, 0x6f, 0x5f, 0x71, 0x63, 0x6f, 0x6e, 0x73,
  0x74, 0x37, 0x00, 0x00, 0x02, 0x00, 0x00, 0x00, 0x40, 0x00, 0x00, 0x00,
  0x1c, 0x00, 0x00, 0x00, 0x56, 0xf6, 0xff, 0xff, 0x00, 0x00, 0x00, 0x01,
  0x14, 0x00, 0x00, 0x00, 0x24, 0x03, 0x00, 0x00, 0x08, 0x00, 0x00, 0x00,
  0x00, 0x00, 0x00, 0x02, 0x30, 0x03, 0x00, 0x00, 0x94, 0xf5, 0xff, 0xff,
  0x08, 0x00, 0x00, 0x00, 0x08, 0x02, 0x00, 0x00, 0x40, 0x00, 0x00, 0x00,
  0x00, 0x00, 0x00, 0x00, 0x00, 0x00, 0x00, 0x00, 0x00, 0x00, 0x00, 0x00,
  0x00, 0x00, 0x00, 0x00, 0x00, 0x00, 0x00, 0x00, 0x00, 0x00, 0x00, 0x00,
  0x00, 0x00, 0x00, 0x00, 0x00, 0x00, 0x00, 0x00, 0x00, 0x00, 0x00, 0x00,
  0x00, 0x00, 0x00, 0x00, 0x00, 0x00, 0x00, 0x00, 0x00, 0x00, 0x00, 0x00,
  0x00, 0x00, 0x00, 0x00, 0x00, 0x00, 0x00, 0x00, 0x00, 0x00, 0x00, 0x00,
  0x00, 0x00, 0x00, 0x00, 0x00, 0x00, 0x00, 0x00, 0x00, 0x00, 0x00, 0x00,
  0x00, 0x00, 0x00, 0x00, 0x00, 0x00, 0x00, 0x00, 0x00, 0x00, 0x00, 0x00,
  0x00, 0x00, 0x00, 0x00, 0x00, 0x00, 0x00, 0x00, 0x00, 0x00, 0x00, 0x00,
  0x00, 0x00, 0x00, 0x00, 0x00, 0x00, 0x00, 0x00, 0x00, 0x00, 0x00, 0x00,
  0x00, 0x00, 0x00, 0x00, 0x00, 0x00, 0x00, 0x00, 0x00, 0x00, 0x00, 0x00,
  0x00, 0x00, 0x00, 0x00, 0x00, 0x00, 0x00, 0x00, 0x00, 0x00, 0x00, 0x00,
  0x00, 0x00, 0x00, 0x00, 0x00, 0x00, 0x00, 0x00, 0x00, 0x00, 0x00, 0x00,
  0x00, 0x00, 0x00, 0x00, 0x00, 0x00, 0x00, 0x00, 0x00, 0x00, 0x00, 0x00,
  0x00, 0x00, 0x00, 0x00, 0x00, 0x00, 0x00, 0x00, 0x00, 0x00, 0x00, 0x00,
  0x00, 0x00, 0x00, 0x00, 0x00, 0x00, 0x00, 0x00, 0x00, 0x00, 0x00, 0x00,
  0x00, 0x00, 0x00, 0x00, 0x00, 0x00, 0x00, 0x00, 0x00, 0x00, 0x00, 0x00,
  0x00, 0x00, 0x00, 0x00, 0x00, 0x00, 0x00, 0x00, 0x00, 0x00, 0x00, 0x00,
  0x00, 0x00, 0x00, 0x00, 0x00, 0x00, 0x00, 0x00, 0x00, 0x00, 0x00, 0x00,
  0x00, 0x00, 0x00, 0x00, 0x00, 0x00, 0x00, 0x00, 0x00, 0x00, 0x00, 0x00,
  0x00, 0x00, 0x00, 0x00, 0x00, 0x00, 0x00, 0x00, 0x00, 0x00, 0x00, 0x00,
  0x00, 0x00, 0x00, 0x00, 0x00, 0x00, 0x00, 0x00, 0x00, 0x00, 0x00, 0x00,
  0x00, 0x00, 0x00, 0x00, 0x00, 0x00, 0x00, 0x00, 0x00, 0x00, 0x00, 0x00,
  0x00, 0x00, 0x00, 0x00, 0x00, 0x00, 0x00, 0x00, 0x00, 0x00, 0x00, 0x00,
  0x00, 0x00, 0x00, 0x00, 0x00, 0x00, 0x00, 0x00, 0x00, 0x00, 0x00, 0x00,
  0x00, 0x00, 0x00, 0x00, 0x00, 0x00, 0x00, 0x00, 0x00, 0x00, 0x00, 0x00,
  0x00, 0x00, 0x00, 0x00, 0x00, 0x00, 0x00, 0x00, 0x00, 0x00, 0x00, 0x00,
  0x00, 0x00, 0x00, 0x00, 0x00, 0x00, 0x00, 0x00, 0x00, 0x00, 0x00, 0x00,
  0x00, 0x00, 0x00, 0x00, 0x00, 0x00, 0x00, 0x00, 0x00, 0x00, 0x00, 0x00,
  0x00, 0x00, 0x00, 0x00, 0x00, 0x00, 0x00, 0x00, 0x00, 0x00, 0x00, 0x00,
  0x00, 0x00, 0x00, 0x00, 0x00, 0x00, 0x00, 0x00, 0x00, 0x00, 0x00, 0x00,
  0x00, 0x00, 0x00, 0x00, 0x00, 0x00, 0x00, 0x00, 0x00, 0x00, 0x00, 0x00,
  0x00, 0x00, 0x00, 0x00, 0x00, 0x00, 0x00, 0x00, 0x00, 0x00, 0x00, 0x00,
  0x00, 0x00, 0x00, 0x00, 0x00, 0x00, 0x00, 0x00, 0x00, 0x00, 0x00, 0x00,
  0x00, 0x00, 0x00, 0x00, 0x00, 0x00, 0x00, 0x00, 0x00, 0x00, 0x00, 0x00,
  0x00, 0x00, 0x00, 0x00, 0x00, 0x00, 0x00, 0x00, 0x00, 0x00, 0x00, 0x00,
  0x00, 0x00, 0x00, 0x00, 0x00, 0x00, 0x00, 0x00, 0x00, 0x00, 0x00, 0x00,
  0x00, 0x00, 0x00, 0x00, 0x00, 0x00, 0x00, 0x00, 0x00, 0x00, 0x00, 0x00,
  0x00, 0x00, 0x00, 0x00, 0x00, 0x00, 0x00, 0x00, 0x00, 0x00, 0x00, 0x00,
  0x00, 0x00, 0x00, 0x00, 0x00, 0x00, 0x00, 0x00, 0x00, 0x00, 0x00, 0x00,
  0x00, 0x00, 0x00, 0x00, 0x00, 0x00, 0x00, 0x00, 0x00, 0x00, 0x00, 0x00,
  0x00, 0x00, 0x00, 0x00, 0x00, 0x00, 0x00, 0x00, 0x00, 0x00, 0x00, 0x00,
  0x00, 0x00, 0x00, 0x00, 0x00, 0x00, 0x00, 0x00, 0x00, 0x00, 0x00, 0x00,
  0x00, 0x00, 0x00, 0x00, 0x00, 0x00, 0x00, 0x00, 0x40, 0x00, 0x00, 0x00,
  0x71, 0xfe, 0x41, 0x39, 0x0a, 0xd2, 0xfb, 0x38, 0xdd, 0xdc, 0x2c, 0x39,
  0x63, 0x50, 0x14, 0x39, 0xc7, 0xa1, 0x01, 0x39, 0x1e, 0x15, 0x10, 0x39,
  0x67, 0xfe, 0x18, 0x39, 0x43, 0x26, 0x0e, 0x39, 0x4a, 0x89, 0x1d, 0x39,
  0xa3, 0x32, 0x00, 0x39, 0xa2, 0xf1, 0x09, 0x39, 0x7c, 0x2b, 0xf9, 0x38,
  0x93, 0x69, 0x1d, 0x39, 0x91, 0xbe, 0xec, 0x38, 0x8c, 0x02, 0x23, 0x39,
  0x4e, 0xe6, 0xf3, 0x38, 0x10, 0x2d, 0x12, 0x39, 0x1e, 0x3f, 0x33, 0x39,
  0x5f, 0x8f, 0x04, 0x39, 0xf5, 0x12, 0x25, 0x39, 0xf3, 0x68, 0x10, 0x39,
  0xb7, 0x2d, 0x25, 0x39, 0x18, 0xae, 0x06, 0x39, 0xbd, 0x6d, 0x10, 0x39,
  0xdd, 0xee, 0x01, 0x39, 0xe9, 0x79, 0x01, 0x39, 0x43, 0xe2, 0xf6, 0x38,
  0x0e, 0xd8, 0x0b, 0x39, 0x9a, 0xc0, 0x00, 0x39, 0x34, 0x76, 0x00, 0x39,
  0x8c, 0x06, 0xe9, 0x38, 0x70, 0xec, 0x04, 0x39, 0x1d, 0x7b, 0x02, 0x39,
  0xb9, 0x9c, 0x37, 0x39, 0x1f, 0xce, 0x00, 0x39, 0xb2, 0x4e, 0x3b, 0x39,
  0x1c, 0x6b, 0xf6, 0x38, 0xd7, 0xab, 0x02, 0x39, 0x97, 0x5a, 0xeb, 0x38,
  0x97, 0xa4, 0x05, 0x39, 0x29, 0x81, 0x21, 0x39, 0x2b, 0x60, 0x1d, 0x39,
  0xa8, 0x18, 0x12, 0x39, 0x57, 0x27, 0x02, 0x39, 0x41, 0x71, 0x19, 0x39,
  0xc0, 0xd0, 0xf2, 0x38, 0x47, 0x5e, 0x0e, 0x39, 0x93, 0x28, 0x16, 0x39,
  0x73, 0xa2, 0xe9, 0x38, 0x40, 0x28, 0xf3, 0x38, 0xaf, 0x80, 0x01, 0x39,
  0x54, 0xf8, 0x03, 0x39, 0x9d, 0x7f, 0xee, 0x38, 0xde, 0xdd, 0xe9, 0x38,
  0x2b, 0x58, 0x1e, 0x39, 0x0c, 0xe1, 0x0b, 0x39, 0x4c, 0x25, 0x4c, 0x39,
  0x3b, 0xce, 0xee, 0x38, 0x55, 0xcf, 0x19, 0x39, 0x3e, 0xd6, 0x0f, 0x39,
  0xaf, 0x9d, 0x23, 0x39, 0x90, 0xa5, 0x07, 0x39, 0x58, 0x7c, 0xc4, 0x38,
  0x36, 0x93, 0x86, 0x39, 0x12, 0x00, 0x00, 0x00, 0x74, 0x66, 0x6c, 0x2e,
  0x70, 0x73, 0x65, 0x75, 0x64, 0x6f, 0x5f, 0x71, 0x63, 0x6f, 0x6e, 0x73,
  0x74, 0x36, 0x00, 0x00, 0x01, 0x00, 0x00, 0x00, 0x40, 0x00, 0x00, 0x00,
  0xa6, 0xf9, 0xff, 0xff, 0x00, 0x00, 0x00, 0x01, 0x14, 0x00, 0x00, 0x00,
  0xa8, 0x01, 0x00, 0x00, 0x07, 0x00, 0x00, 0x00, 0x00, 0x00, 0x00, 0x09,
  0xb4, 0x01, 0x00, 0x00, 0xe4, 0xf8, 0xff, 0xff, 0x08, 0x00, 0x00, 0x00,
  0x0c, 0x01, 0x00, 0x00, 0x20, 0x00, 0x00, 0x00, 0x00, 0x00, 0x00, 0x00,
  0x00, 0x00, 0x00, 0x00, 0x00, 0x00, 0x00, 0x00, 0x00, 0x00, 0x00, 0x00,
  0x00, 0x00, 0x00, 0x00, 0x00, 0x00, 0x00, 0x00, 0x00, 0x00, 0x00, 0x00,
  0x00, 0x00, 0x00, 0x00, 0x00, 0x00, 0x00, 0x00, 0x00, 0x00, 0x00, 0x00,
  0x00, 0x00, 0x00, 0x00, 0x00, 0x00, 0x00, 0x00, 0x00, 0x00, 0x00, 0x00,
  0x00, 0x00, 0x00, 0x00, 0x00, 0x00, 0x00, 0x00, 0x00, 0x00, 0x00, 0x00,
  0x00, 0x00, 0x00, 0x00, 0x00, 0x00, 0x00, 0x00, 0x00, 0x00, 0x00, 0x00,
  0x00, 0x00, 0x00, 0x00, 0x00, 0x00, 0x00, 0x00, 0x00, 0x00, 0x00, 0x00,
  0x00, 0x00, 0x00, 0x00, 0x00, 0x00, 0x00, 0x00, 0x00, 0x00, 0x00, 0x00,
  0x00, 0x00, 0x00, 0x00, 0x00, 0x00, 0x00, 0x00, 0x00, 0x00, 0x00, 0x00,
  0x00, 0x00, 0x00, 0x00, 0x00, 0x00, 0x00, 0x00, 0x00, 0x00, 0x00, 0x00,
  0x00, 0x00, 0x00, 0x00, 0x00, 0x00, 0x00, 0x00, 0x00, 0x00, 0x00, 0x00,
  0x00, 0x00, 0x00, 0x00, 0x00, 0x00, 0x00, 0x00, 0x00, 0x00, 0x00, 0x00,
  0x00, 0x00, 0x00, 0x00, 0x00, 0x00, 0x00, 0x00, 0x00, 0x00, 0x00, 0x00,
  0x00, 0x00, 0x00, 0x00, 0x00, 0x00, 0x00, 0x00, 0x00, 0x00, 0x00, 0x00,
  0x00, 0x00, 0x00, 0x00, 0x00, 0x00, 0x00, 0x00, 0x00, 0x00, 0x00, 0x00,
  0x00, 0x00, 0x00, 0x00, 0x00, 0x00, 0x00, 0x00, 0x00, 0x00, 0x00, 0x00,
  0x00, 0x00, 0x00, 0x00, 0x00, 0x00, 0x00, 0x00, 0x00, 0x00, 0x00, 0x00,
  0x00, 0x00, 0x00, 0x00, 0x00, 0x00, 0x00, 0x00, 0x00, 0x00, 0x00, 0x00,
  0x00, 0x00, 0x00, 0x00, 0x00, 0x00, 0x00, 0x00, 0x00, 0x00, 0x00, 0x00,
  0x00, 0x00, 0x00, 0x00, 0x00, 0x00, 0x00, 0x00, 0x00, 0x00, 0x00, 0x00,
  0x00, 0x00, 0x00, 0x00, 0x00, 0x00, 0x00, 0x00, 0x00, 0x00, 0x00, 0x00,
  0x00, 0x00, 0x00, 0x00, 0x20, 0x00, 0x00, 0x00, 0x84, 0x9e, 0x8e, 0x3b,
  0xb5, 0xc2, 0x82, 0x3b, 0xdc, 0x23, 0x39, 0x3b, 0xa6, 0x46, 0xbb, 0x3b,
  0x89, 0x6c, 0x72, 0x3b, 0x70, 0x59, 0x89, 0x3b, 0x1c, 0x38, 0x71, 0x3b,
  0x65, 0xc7, 0x91, 0x3b, 0x1b, 0x72, 0x6e, 0x3b, 0x09, 0x45, 0xb4, 0x3b,
  0x74, 0x87, 0xa2, 0x3b, 0xbc, 0xb0, 0x7b, 0x3b, 0xfb, 0x10, 0x73, 0x3b,
  0x39, 0x25, 0x84, 0x3b, 0x62, 0xa4, 0x8a, 0x3b, 0xa7, 0xe9, 0x4a, 0x3b,
  0x4f, 0xf4, 0x70, 0x3b, 0x20, 0x10, 0x5e, 0x3b, 0x97, 0x48, 0xa7, 0x3b,
  0x2b, 0x21, 0x9e, 0x3b, 0x2f, 0x20, 0xa5, 0x3b, 0xd8, 0xd8, 0x62, 0x3b,
  0x34, 0x63, 0x88, 0x3b, 0x53, 0x16, 0x8a, 0x3b, 0x1b, 0x1b, 0x5e, 0x3b,
  0xd0, 0x2b, 0x7e, 0x3b, 0x4e, 0x07, 0x8d, 0x3b, 0xa0, 0x57, 0x8a, 0x3b,
  0x22, 0xcf, 0x5e, 0x3b, 0x83, 0x98, 0x5a, 0x3b, 0xfa, 0x91, 0xb2, 0x3b,
  0xa3, 0xf1, 0xad, 0x3b, 0x12, 0x00, 0x00, 0x00, 0x74, 0x66, 0x6c, 0x2e,
  0x70, 0x73, 0x65, 0x75, 0x64, 0x6f, 0x5f, 0x71, 0x63, 0x6f, 0x6e, 0x73,
  0x74, 0x35, 0x00, 0x00, 0x02, 0x00, 0x00, 0x00, 0x20, 0x00, 0x00, 0x00,
  0x40, 0x00, 0x00, 0x00, 0x7e, 0xfb, 0xff, 0xff, 0x00, 0x00, 0x00, 0x01,
  0x14, 0x00, 0x00, 0x00, 0xa4, 0x01, 0x00, 0x00, 0x06, 0x00, 0x00, 0x00,
  0x00, 0x00, 0x00, 0x02, 0xb0, 0x01, 0x00, 0x00, 0xbc, 0xfa, 0xff, 0xff,
  0x08, 0x00, 0x00, 0x00, 0x08, 0x01, 0x00, 0x00, 0x20, 0x00, 0x00, 0x00,
  0x00, 0x00, 0x00, 0x00, 0x00, 0x00, 0x00, 0x00, 0x00, 0x00, 0x00, 0x00,
  0x00, 0x00, 0x00, 0x00, 0x00, 0x00, 0x00, 0x00, 0x00, 0x00, 0x00, 0x00,
  0x00, 0x00, 0x00, 0x00, 0x00, 0x00, 0x00, 0x00, 0x00, 0x00, 0x00, 0x00,
  0x00, 0x00, 0x00, 0x00, 0x00, 0x00, 0x00, 0x00, 0x00, 0x00, 0x00, 0x00,
  0x00, 0x00, 0x00, 0x00, 0x00, 0x00, 0x00, 0x00, 0x00, 0x00, 0x00, 0x00,
  0x00, 0x00, 0x00, 0x00, 0x00, 0x00, 0x00, 0x00, 0x00, 0x00, 0x00, 0x00,
  0x00, 0x00, 0x00, 0x00, 0x00, 0x00, 0x00, 0x00, 0x00, 0x00, 0x00, 0x00,
  0x00, 0x00, 0x00, 0x00, 0x00, 0x00, 0x00, 0x00, 0x00, 0x00, 0x00, 0x00,
  0x00, 0x00, 0x00, 0x00, 0x00, 0x00, 0x00, 0x00, 0x00, 0x00, 0x00, 0x00,
  0x00, 0x00, 0x00, 0x00, 0x00, 0x00, 0x00, 0x00, 0x00, 0x00, 0x00, 0x00,
  0x00, 0x00, 0x00, 0x00, 0x00, 0x00, 0x00, 0x00, 0x00, 0x00, 0x00, 0x00,
  0x00, 0x00, 0x00, 0x00, 0x00, 0x00, 0x00, 0x00, 0x00, 0x00, 0x00, 0x00,
  0x00, 0x00, 0x00, 0x00, 0x00, 0x00, 0x00, 0x00, 0x00, 0x00, 0x00, 0x00,
  0x00, 0x00, 0x00, 0x00, 0x00, 0x00, 0x00, 0x00, 0x00, 0x00, 0x00, 0x00,
  0x00, 0x00, 0x00, 0x00, 0x00, 0x00, 0x00, 0x00, 0x00, 0x00, 0x00, 0x00,
  0x00, 0x00, 0x00, 0x00, 0x00, 0x00, 0x00, 0x00, 0x00, 0x00, 0x00, 0x00,
  0x00, 0x00, 0x00, 0x00, 0x00, 0x00, 0x00, 0x00, 0x00, 0x00, 0x00, 0x00,
  0x00, 0x00, 0x00, 0x00, 0x00, 0x00, 0x00, 0x00, 0x00, 0x00, 0x00, 0x00,
  0x00, 0x00, 0x00, 0x00, 0x00, 0x00, 0x00, 0x00, 0x00, 0x00, 0x00, 0x00,
  0x00, 0x00, 0x00, 0x00, 0x00, 0x00, 0x00, 0x00, 0x00, 0x00, 0x00, 0x00,
  0x00, 0x00, 0x00, 0x00, 0x00, 0x00, 0x00, 0x00, 0x00, 0x00, 0x00, 0x00,
  0x00, 0x00, 0x00, 0x00, 0x20, 0x00, 0x00, 0x00, 0xd6, 0xa9, 0xa2, 0x38,
  0x5d, 0x23, 0x95, 0x38, 0x0b, 0x29, 0x53, 0x38, 0xae, 0x98, 0xd5, 0x38,
  0x5f, 0x3f, 0x8a, 0x38, 0x27, 0xa7, 0x9c, 0x38, 0x7c, 0x8f, 0x89, 0x38,
  0x65, 0x44, 0xa6, 0x38, 0x97, 0xfa, 0x87, 0x38, 0xfc, 0x9a, 0xcd, 0x38,
  0x1d, 0x5f, 0xb9, 0x38, 0x2c, 0x88, 0x8f, 0x38, 0x27, 0x9d, 0x8a, 0x38,
  0xb4, 0xb7, 0x96, 0x38, 0x9c, 0x20, 0x9e, 0x38, 0x48, 0x6e, 0x67, 0x38,
  0xd2, 0x68, 0x89, 0x38, 0xc4, 0x45, 0x7d, 0x38, 0x50, 0xcb, 0xbe, 0x38,
  0x89, 0x5a, 0xb4, 0x38, 0x45, 0x55, 0xbc, 0x38, 0x4e, 0x5d, 0x81, 0x38,
  0x50, 0x8e, 0x9b, 0x38, 0x96, 0x7e, 0x9d, 0x38, 0x4a, 0x52, 0x7d, 0x38,
  0x57, 0xf2, 0x90, 0x38, 0x64, 0xd9, 0xa0, 0x38, 0x10, 0xc9, 0x9d, 0x38,
  0x9e, 0x1f, 0x7e, 0x38, 0x67, 0x51, 0x79, 0x38, 0xc8, 0xaa, 0xcb, 0x38,
  0xfe, 0x63, 0xc6, 0x38, 0x12, 0x00, 0x00, 0x00, 0x74, 0x66, 0x6c, 0x2e,
  0x70, 0x73, 0x65, 0x75, 0x64, 0x6f, 0x5f, 0x71, 0x63, 0x6f, 0x6e, 0x73,
  0x74, 0x34, 0x00, 0x00, 0x01, 0x00, 0x00, 0x00, 0x20, 0x00, 0x00, 0x00,
  0x4e, 0xfd, 0xff, 0xff, 0x00, 0x00, 0x00, 0x01, 0x14, 0x00, 0x00, 0x00,
  0xe8, 0x00, 0x00, 0x00, 0x05, 0x00, 0x00, 0x00, 0x00, 0x00, 0x00, 0x09,
  0xf4, 0x00, 0x00, 0x00, 0x8c, 0xfc, 0xff, 0xff, 0x08, 0x00, 0x00, 0x00,
  0x8c, 0x00, 0x00, 0x00, 0x10, 0x00, 0x00, 0x00, 0x00, 0x00, 0x00, 0x00,
  0x00, 0x00, 0x00, 0x00, 0x00, 0x00, 0x00, 0x00, 0x00, 0x00, 0x00, 0x00,
  0x00, 0x00, 0x00, 0x00, 0x00, 0x00, 0x00, 0x00, 0x00, 0x00, 0x00, 0x00,
  0x00, 0x00, 0x00, 0x00, 0x00, 0x00, 0x00, 0x00, 0x00, 0x00, 0x00, 0x00,
  0x00, 0x00, 0x00, 0x00, 0x00, 0x00, 0x00, 0x00, 0x00, 0x00, 0x00, 0x00,
  0x00, 0x00, 0x00, 0x00, 0x00, 0x00, 0x00, 0x00, 0x00, 0x00, 0x00, 0x00,
  0x00, 0x00, 0x00, 0x00, 0x00, 0x00, 0x00, 0x00, 0x00, 0x00, 0x00, 0x00,
  0x00, 0x00, 0x00, 0x00, 0x00, 0x00, 0x00, 0x00, 0x00, 0x00, 0x00, 0x00,
  0x00, 0x00, 0x00, 0x00, 0x00, 0x00, 0x00, 0x00, 0x00, 0x00, 0x00, 0x00,
  0x00, 0x00, 0x00, 0x00, 0x00, 0x00, 0x00, 0x00, 0x00, 0x00, 0x00, 0x00,
  0x00, 0x00, 0x00, 0x00, 0x00, 0x00, 0x00, 0x00, 0x00, 0x00, 0x00, 0x00,
  0x00, 0x00, 0x00, 0x00, 0x00, 0x00, 0x00, 0x00, 0x10, 0x00, 0x00, 0x00,
  0x88, 0x49, 0xa7, 0x3b, 0x45, 0x74, 0x97, 0x3b, 0x93, 0xb7, 0x9e, 0x3b,
  0x93, 0xdf, 0xb2, 0x3b, 0x18, 0xaf, 0xa8, 0x3b, 0x8f, 0x1c, 0x99, 0x3b,
  0xa5, 0xbb, 0xd7, 0x3b, 0xe4, 0x03, 0x98, 0x3b, 0x92, 0xdd, 0xe2, 0x3b,
  0x98, 0xc7, 0x9d, 0x3b, 0x48, 0x6d, 0x84, 0x3b, 0x0b, 0x28, 0x74, 0x3b,
  0x50, 0xce, 0x9e, 0x3b, 0xd9, 0x26, 0xa7, 0x3b, 0x80, 0x13, 0xd2, 0x3b,
  0x6c, 0x6f, 0x80, 0x3b, 0x12, 0x00, 0x00, 0x00, 0x74, 0x66, 0x6c, 0x2e,
  0x70, 0x73, 0x65, 0x75, 0x64, 0x6f, 0x5f, 0x71, 0x63, 0x6f, 0x6e, 0x73,
  0x74, 0x33, 0x00, 0x00, 0x02, 0x00, 0x00, 0x00, 0x10, 0x00, 0x00, 0x00,
  0x20, 0x00, 0x00, 0x00, 0x66, 0xfe, 0xff, 0xff, 0x00, 0x00, 0x00, 0x01,
  0x14, 0x00, 0x00, 0x00, 0xe4, 0x00, 0x00, 0x00, 0x04, 0x00, 0x00, 0x00,
  0x00, 0x00, 0x00, 0x02, 0xf0, 0x00, 0x00, 0x00, 0xa4, 0xfd, 0xff, 0xff,
  0x08, 0x00, 0x00, 0x00, 0x88, 0x00, 0x00, 0x00, 0x10, 0x00, 0x00, 0x00,
  0x00, 0x00, 0x00, 0x00, 0x00, 0x00, 0x00, 0x00, 0x00, 0x00, 0x00, 0x00,
  0x00, 0x00, 0x00, 0x00, 0x00, 0x00, 0x00, 0x00, 0x00, 0x00, 0x00, 0x00,
  0x00, 0x00, 0x00, 0x00, 0x00, 0x00, 0x00, 0x00, 0x00, 0x00, 0x00, 0x00,
  0x00, 0x00, 0x00, 0x00, 0x00, 0x00, 0x00, 0x00, 0x00, 0x00, 0x00, 0x00,
  0x00, 0x00, 0x00, 0x00, 0x00, 0x00, 0x00, 0x00, 0x00, 0x00, 0x00, 0x00,
  0x00, 0x00, 0x00, 0x00, 0x00, 0x00, 0x00, 0x00, 0x00, 0x00, 0x00, 0x00,
  0x00, 0x00, 0x00, 0x00, 0x00, 0x00, 0x00, 0x00, 0x00, 0x00, 0x00, 0x00,
  0x00, 0x00, 0x00, 0x00, 0x00, 0x00, 0x00, 0x00, 0x00, 0x00, 0x00, 0x00,
  0x00, 0x00, 0x00, 0x00, 0x00, 0x00, 0x00, 0x00, 0x00, 0x00, 0x00, 0x00,
  0x00, 0x00, 0x00, 0x00, 0x00, 0x00, 0x00, 0x00, 0x00, 0x00, 0x00, 0x00,
  0x00, 0x00, 0x00, 0x00, 0x00, 0x00, 0x00, 0x00, 0x10, 0x00, 0x00, 0x00,
  0xb0, 0x21, 0xbd, 0x38, 0x27, 0x3b, 0xab, 0x38, 0x3e, 0x71, 0xb3, 0x38,
  0x09, 0x3b, 0xca, 0x38, 0xf1, 0xb5, 0xbe, 0x38, 0xd8, 0x1a, 0xad, 0x38,
  0x44, 0xe7, 0xf3, 0x38, 0x87, 0xdd, 0xab, 0x38, 0xab, 0x3e, 0x00, 0x39,
  0xed, 0x61, 0xb2, 0x38, 0x1c, 0xb8, 0x95, 0x38, 0xe9, 0x04, 0x8a, 0x38,
  0xf3, 0x8a, 0xb3, 0x38, 0x79, 0xfa, 0xbc, 0x38, 0x06, 0x82, 0xed, 0x38,
  0xd1, 0x34, 0x91, 0x38, 0x12, 0x00, 0x00, 0x00, 0x74, 0x66, 0x6c, 0x2e,
  0x70, 0x73, 0x65, 0x75, 0x64, 0x6f, 0x5f, 0x71, 0x63, 0x6f, 0x6e, 0x73,
  0x74, 0x32, 0x00, 0x00, 0x01, 0x00, 0x00, 0x00, 0x10, 0x00, 0x00, 0x00,
  0x76, 0xff, 0xff, 0xff, 0x00, 0x00, 0x00, 0x01, 0x14, 0x00, 0x00, 0x00,
  0x58, 0x00, 0x00, 0x00, 0x03, 0x00, 0x00, 0x00, 0x00, 0x00, 0x00, 0x09,
  0x64, 0x00, 0x00, 0x00, 0xb4, 0xfe, 0xff, 0xff, 0x08, 0x00, 0x00, 0x00,
  0x2c, 0x00, 0x00, 0x00, 0x04, 0x00, 0x00, 0x00, 0x00, 0x00, 0x00, 0x00,
  0x00, 0x00, 0x00, 0x00, 0x00, 0x00, 0x00, 0x00, 0x00, 0x00, 0x00, 0x00,
  0x00, 0x00, 0x00, 0x00, 0x00, 0x00, 0x00, 0x00, 0x00, 0x00, 0x00, 0x00,
  0x00, 0x00, 0x00, 0x00, 0x00, 0x00, 0x00, 0x00, 0x04, 0x00, 0x00, 0x00,
  0x5f, 0xd1, 0xf5, 0x3b, 0x32, 0xf0, 0xd6, 0x3b, 0xda, 0x0d, 0xf8, 0x3b,
  0x24, 0xf4, 0xd1, 0x3b, 0x12, 0x00, 0x00, 0x00, 0x74, 0x66, 0x6c, 0x2e,
  0x70, 0x73, 0x65, 0x75, 0x64, 0x6f, 0x5f, 0x71, 0x63, 0x6f, 0x6e, 0x73,
  0x74, 0x31, 0x00, 0x00, 0x02, 0x00, 0x00, 0x00, 0x04, 0x00, 0x00, 0x00,
  0x10, 0x00, 0x00, 0x00, 0x00, 0x00, 0x16, 0x00, 0x1c, 0x00, 0x18, 0x00,
  0x17, 0x00, 0x10, 0x00, 0x0c, 0x00, 0x08, 0x00, 0x00, 0x00, 0x00, 0x00,
  0x00, 0x00, 0x07, 0x00, 0x16, 0x00, 0x00, 0x00, 0x00, 0x00, 0x00, 0x01,
  0x14, 0x00, 0x00, 0x00, 0x58, 0x00, 0x00, 0x00, 0x02, 0x00, 0x00, 0x00,
  0x00, 0x00, 0x00, 0x02, 0x64, 0x00, 0x00, 0x00, 0x54, 0xff, 0xff, 0xff,
  0x08, 0x00, 0x00, 0x00, 0x2c, 0x00, 0x00, 0x00, 0x04, 0x00, 0x00, 0x00,
  0x00, 0x00, 0x00, 0x00, 0x00, 0x00, 0x00, 0x00, 0x00, 0x00, 0x00, 0x00,
  0x00, 0x00, 0x00, 0x00, 0x00, 0x00, 0x00, 0x00, 0x00, 0x00, 0x00, 0x00,
  0x00, 0x00, 0x00, 0x00, 0x00, 0x00, 0x00, 0x00, 0x00, 0x00, 0x00, 0x00,
  0x04, 0x00, 0x00, 0x00, 0x7a, 0xee, 0x5d, 0x39, 0x74, 0x0d, 0x42, 0x39,
  0x54, 0xf3, 0x5f, 0x39, 0x64, 0x8d, 0x3d, 0x39, 0x11, 0x00, 0x00, 0x00,
  0x74, 0x66, 0x6c, 0x2e, 0x70, 0x73, 0x65, 0x75, 0x64, 0x6f, 0x5f, 0x71,
  0x63, 0x6f, 0x6e, 0x73, 0x74, 0x00, 0x00, 0x00, 0x01, 0x00, 0x00, 0x00,
  0x04, 0x00, 0x00, 0x00, 0x00, 0x00, 0x16, 0x00, 0x20, 0x00, 0x1c, 0x00,
  0x1b, 0x00, 0x14, 0x00, 0x10, 0x00, 0x0c, 0x00, 0x00, 0x00, 0x00, 0x00,
  0x08, 0x00, 0x07, 0x00, 0x16, 0x00, 0x00, 0x00, 0x00, 0x00, 0x00, 0x01,
  0x18, 0x00, 0x00, 0x00, 0x2c, 0x00, 0x00, 0x00, 0x48, 0x00, 0x00, 0x00,
  0x01, 0x00, 0x00, 0x00, 0x00, 0x00, 0x00, 0x09, 0x68, 0x00, 0x00, 0x00,
  0x02, 0x00, 0x00, 0x00, 0xff, 0xff, 0xff, 0xff, 0x1c, 0x00, 0x00, 0x00,
  0x0c, 0x00, 0x0c, 0x00, 0x00, 0x00, 0x00, 0x00, 0x08, 0x00, 0x04, 0x00,
  0x0c, 0x00, 0x00, 0x00, 0x08, 0x00, 0x00, 0x00, 0x10, 0x00, 0x00, 0x00,
  0x01, 0x00, 0x00, 0x00, 0xf2, 0xff, 0xff, 0xff, 0xff, 0xff, 0xff, 0xff,
  0x01, 0x00, 0x00, 0x00, 0xc1, 0x2c, 0x28, 0x3d, 0x27, 0x00, 0x00, 0x00,
  0x73, 0x65, 0x72, 0x76, 0x69, 0x6e, 0x67, 0x5f, 0x64, 0x65, 0x66, 0x61,
  0x75, 0x6c, 0x74, 0x5f, 0x61, 0x75, 0x72, 0x61, 0x73, 0x79, 0x6e, 0x63,
  0x5f, 0x64, 0x73, 0x70, 0x5f, 0x66, 0x65, 0x61, 0x74, 0x75, 0x72, 0x65,
  0x73, 0x3a, 0x30, 0x00, 0x02, 0x00, 0x00, 0x00, 0x01, 0x00, 0x00, 0x00,
  0x1c, 0x00, 0x00, 0x00, 0x02, 0x00, 0x00, 0x00, 0x24, 0x00, 0x00, 0x00,
  0x04, 0x00, 0x00, 0x00, 0xf0, 0xff, 0xff, 0xff, 0x19, 0x00, 0x00, 0x00,
  0x02, 0x00, 0x00, 0x00, 0x00, 0x00, 0x00, 0x19, 0x0c, 0x00, 0x10, 0x00,
  0x0f, 0x00, 0x00, 0x00, 0x08, 0x00, 0x04, 0x00, 0x0c, 0x00, 0x00, 0x00,
  0x09, 0x00, 0x00, 0x00, 0x04, 0x00, 0x00, 0x00, 0x00, 0x00, 0x00, 0x09,
};
const unsigned int g_aurasync_state_model_len = 10536;