#pragma once
#include <cstdint>

alignas(16) const unsigned char g_aurasync_state_model[] = {
  0x20, 0x00, 0x00, 0x00, 0x54, 0x46, 0x4c, 0x33, 0x00, 0x00, 0x00, 0x00,
  0x14, 0x00, 0x20, 0x00, 0x1c, 0x00, 0x18, 0x00, 0x14, 0x00, 0x10, 0x00,
  0x0c, 0x00, 0x00, 0x00, 0x08, 0x00, 0x04, 0x00, 0x14, 0x00, 0x00, 0x00,
  0x1c, 0x00, 0x00, 0x00, 0xa0, 0x00, 0x00, 0x00, 0xf8, 0x00, 0x00, 0x00,
  0x50, 0x15, 0x00, 0x00, 0x60, 0x15, 0x00, 0x00, 0xb8, 0x28, 0x00, 0x00,
  0x03, 0x00, 0x00, 0x00, 0x01, 0x00, 0x00, 0x00, 0x10, 0x00, 0x00, 0x00,
  0x00, 0x00, 0x0a, 0x00, 0x10, 0x00, 0x0c, 0x00, 0x08, 0x00, 0x04, 0x00,
  0x0a, 0x00, 0x00, 0x00, 0x0c, 0x00, 0x00, 0x00, 0x1c, 0x00, 0x00, 0x00,
  0x3c, 0x00, 0x00, 0x00, 0x0f, 0x00, 0x00, 0x00, 0x73, 0x65, 0x72, 0x76,
  0x69, 0x6e, 0x67, 0x5f, 0x64, 0x65, 0x66, 0x61, 0x75, 0x6c, 0x74, 0x00,
  0x01, 0x00, 0x00, 0x00, 0x04, 0x00, 0x00, 0x00, 0x88, 0xff, 0xff, 0xff,
  0x0d, 0x00, 0x00, 0x00, 0x04, 0x00, 0x00, 0x00, 0x08, 0x00, 0x00, 0x00,
  0x6f, 0x75, 0x74, 0x70, 0x75, 0x74, 0x5f, 0x30, 0x00, 0x00, 0x00, 0x00,
  0x01, 0x00, 0x00, 0x00, 0x04, 0x00, 0x00, 0x00, 0x92, 0xea, 0xff, 0xff,
  0x04, 0x00, 0x00, 0x00, 0x15, 0x00, 0x00, 0x00, 0x61, 0x75, 0x72, 0x61,
  0x73, 0x79, 0x6e, 0x63, 0x5f, 0x64, 0x73, 0x70, 0x5f, 0x66, 0x65, 0x61,
  0x74, 0x75, 0x72, 0x65, 0x73, 0x00, 0x00, 0x00, 0x02, 0x00, 0x00, 0x00,
  0x34, 0x00, 0x00, 0x00, 0x04, 0x00, 0x00, 0x00, 0xdc, 0xff, 0xff, 0xff,
  0x10, 0x00, 0x00, 0x00, 0x04, 0x00, 0x00, 0x00, 0x13, 0x00, 0x00, 0x00,
  0x43, 0x4f, 0x4e, 0x56, 0x45, 0x52, 0x53, 0x49, 0x4f, 0x4e, 0x5f, 0x4d,
  0x45, 0x54, 0x41, 0x44, 0x41, 0x54, 0x41, 0x00, 0x08, 0x00, 0x0c, 0x00,
  0x08, 0x00, 0x04, 0x00, 0x08, 0x00, 0x00, 0x00, 0x0f, 0x00, 0x00, 0x00,
  0x04, 0x00, 0x00, 0x00, 0x13, 0x00, 0x00, 0x00, 0x6d, 0x69, 0x6e, 0x5f,
  0x72, 0x75, 0x6e, 0x74, 0x69, 0x6d, 0x65, 0x5f, 0x76, 0x65, 0x72, 0x73,
  0x69, 0x6f, 0x6e, 0x00, 0x11, 0x00, 0x00, 0x00, 0x54, 0x14, 0x00, 0x00,
  0x4c, 0x14, 0x00, 0x00, 0x2c, 0x14, 0x00, 0x00, 0xdc, 0x13, 0x00, 0x00,
  0x8c, 0x13, 0x00, 0x00, 0x7c, 0x11, 0x00, 0x00, 0xec, 0x10, 0x00, 0x00,
  0xdc, 0x08, 0x00, 0x00, 0xcc, 0x07, 0x00, 0x00, 0xbc, 0x00, 0x00, 0x00,
  0xb4, 0x00, 0x00, 0x00, 0xac, 0x00, 0x00, 0x00, 0xa4, 0x00, 0x00, 0x00,
  0x9c, 0x00, 0x00, 0x00, 0x94, 0x00, 0x00, 0x00, 0x74, 0x00, 0x00, 0x00,
  0x04, 0x00, 0x00, 0x00, 0x5a, 0xeb, 0xff, 0xff, 0x04, 0x00, 0x00, 0x00,
  0x60, 0x00, 0x00, 0x00, 0x0c, 0x00, 0x00, 0x00, 0x08, 0x00, 0x0e, 0x00,
  0x08, 0x00, 0x04, 0x00, 0x08, 0x00, 0x00, 0x00, 0x10, 0x00, 0x00, 0x00,
  0x28, 0x00, 0x00, 0x00, 0x00, 0x00, 0x06, 0x00, 0x08, 0x00, 0x04, 0x00,
  0x06, 0x00, 0x00, 0x00, 0x04, 0x00, 0x00, 0x00, 0x01, 0x00, 0x00, 0x00,
  0xeb, 0x03, 0x00, 0x00, 0x0c, 0x00, 0x18, 0x00, 0x14, 0x00, 0x10, 0x00,
  0x0c, 0x00, 0x04, 0x00, 0x0c, 0x00, 0x00, 0x00, 0x96, 0xac, 0xc7, 0x74,
  0x6e, 0x70, 0x6f, 0x0f, 0x02, 0x00, 0x00, 0x00, 0x02, 0x00, 0x00, 0x00,
  0x04, 0x00, 0x00, 0x00, 0x06, 0x00, 0x00, 0x00, 0x32, 0x2e, 0x32, 0x30,
  0x2e, 0x30, 0x00, 0x00, 0xc6, 0xeb, 0xff, 0xff, 0x04, 0x00, 0x00, 0x00,
  0x10, 0x00, 0x00, 0x00, 0x31, 0x2e, 0x31, 0x34, 0x2e, 0x30, 0x00, 0x00,
  0x00, 0x00, 0x00, 0x00, 0x00, 0x00, 0x00, 0x00, 0xb0, 0xeb, 0xff, 0xff,
  0xb4, 0xeb, 0xff, 0xff, 0xb8, 0xeb, 0xff, 0xff, 0xbc, 0xeb, 0xff, 0xff,
  0xc0, 0xeb, 0xff, 0xff, 0xf6, 0xeb, 0xff, 0xff, 0x04, 0x00, 0x00, 0x00,
  0x00, 0x07, 0x00, 0x00, 0x3a, 0xe8, 0x29, 0xf2, 0x35, 0xae, 0x2f, 0x70,
  0x22, 0xe3, 0x6c, 0xd7, 0x47, 0xcd, 0x50, 0x7f, 0xe9, 0xd8, 0x28, 0x12,
  0xbb, 0x34, 0x07, 0x9d, 0xe9, 0x9d, 0xeb, 0x8b, 0x50, 0x29, 0xae, 0xf3,
  0x8e, 0x5f, 0xfc, 0xd0, 0x26, 0xf9, 0x2e, 0x06, 0x67, 0x1f, 0x90, 0x5e,
  0x50, 0x81, 0x8a, 0xe7, 0xb7, 0x6c, 0xbd, 0xb9, 0xb6, 0xd0, 0x6c, 0xd0,
  0x1a, 0xa6, 0x37, 0x7e, 0x0c, 0xcf, 0xb9, 0xe1, 0xf9, 0xb9, 0xb7, 0x24,
  0x36, 0x37, 0x25, 0x81, 0xf7, 0x6e, 0x22, 0x05, 0x61, 0x3a, 0x1e, 0xf7,
  0x86, 0x48, 0xc1, 0x77, 0x7c, 0xf7, 0xc4, 0x26, 0xf7, 0x0e, 0xda, 0x11,
  0x69, 0x81, 0x3b, 0x47, 0x1a, 0x03, 0x4c, 0x1a, 0x3f, 0xf5, 0xf2, 0x48,
  0xf9, 0x0b, 0xe3, 0xdd, 0x27, 0x2a, 0x5a, 0x13, 0xa3, 0x7f, 0x35, 0xe1,
  0xe8, 0xd0, 0x23, 0x40, 0xd9, 0x40, 0x44, 0x51, 0x33, 0xdb, 0xf9, 0xff,
  0x4e, 0x25, 0xda, 0xff, 0x1c, 0x07, 0xec, 0x05, 0xf0, 0xba, 0x43, 0x3f,
  0x22, 0x79, 0x16, 0xf7, 0xdb, 0xfe, 0xef, 0x4f, 0xaf, 0xd9, 0x50, 0x7f,
  0xd3, 0xf2, 0x98, 0xb2, 0x08, 0x64, 0x0d, 0xd6, 0x21, 0x73, 0x38, 0x0b,
  0x14, 0x00, 0x98, 0xe4, 0x7f, 0x33, 0xd6, 0x21, 0x16, 0xdc, 0xc6, 0xc3,
  0xee, 0x39, 0x0b, 0x03, 0xd0, 0xe2, 0xa2, 0xa9, 0xab, 0x5e, 0xe9, 0x6a,
  0xda, 0xe7, 0x39, 0xe0, 0x6e, 0x74, 0xd9, 0xc6, 0xbe, 0x3a, 0x86, 0x29,
  0xfe, 0x7f, 0xbe, 0xf0, 0x07, 0x12, 0xed, 0x30, 0xa8, 0x44, 0xa4, 0x57,
  0x1e, 0x60, 0x4b, 0x05, 0xd3, 0xcc, 0x53, 0xcd, 0xe7, 0x9e, 0xb6, 0xfc,
  0x20, 0x1f, 0xe9, 0xb7, 0x8e, 0x5f, 0x1c, 0xd2, 0x0f, 0xb4, 0x1e, 0xbe,
  0xe7, 0xdb, 0xff, 0x81, 0x01, 0x0e, 0x2b, 0x2c, 0x1a, 0xfe, 0x31, 0x32,
  0xa8, 0xee, 0x50, 0x51, 0x5a, 0x84, 0x2a, 0x2e, 0xd9, 0x9d, 0xfb, 0xc2,
  0xc5, 0xb8, 0xd4, 0x81, 0x1d, 0xb1, 0x06, 0x55, 0x4c, 0xfb, 0xf1, 0xcc,
  0x9b, 0x6a, 0x44, 0x14, 0x61, 0x32, 0xd7, 0xfd, 0x92, 0x46, 0x72, 0xec,
  0xee, 0x73, 0xf3, 0x18, 0x4b, 0xd3, 0xec, 0x39, 0xcc, 0x66, 0xbe, 0x15,
  0x2b, 0xae, 0x19, 0xb4, 0x13, 0xc7, 0x0b, 0x7f, 0x32, 0x73, 0x14, 0x01,
  0xfa, 0x98, 0xac, 0x3a, 0x2d, 0xeb, 0x19, 0x60, 0x28, 0xd8, 0xd2, 0x22,
  0x4c, 0x02, 0x0f, 0x4c, 0xd9, 0x0a, 0x54, 0x7f, 0x2a, 0x32, 0xca, 0x3f,
  0x2e, 0xfc, 0xbc, 0x57, 0x65, 0x7f, 0xa3, 0xcd, 0x46, 0x15, 0x20, 0x5c,
  0x0d, 0x27, 0xce, 0x4a, 0xa4, 0x15, 0x1f, 0x46, 0x24, 0x02, 0x52, 0xf5,
  0xcd, 0xb1, 0x5f, 0x68, 0xb1, 0xd6, 0x0c, 0x19, 0x12, 0x48, 0xda, 0xdd,
  0xad, 0xf7, 0x22, 0x98, 0x27, 0xe3, 0x55, 0xe0, 0x43, 0x18, 0x98, 0xc6,
  0x52, 0x9d, 0xd0, 0x28, 0x50, 0x22, 0x7f, 0xc9, 0xd5, 0xaf, 0x2d, 0x91,
  0x44, 0x05, 0x31, 0xa0, 0x81, 0xd6, 0x67, 0xc1, 0xf8, 0x4c, 0x52, 0x27,
  0xb3, 0x18, 0xd1, 0x56, 0x72, 0xd1, 0xc9, 0x26, 0xa3, 0x95, 0xd7, 0xd4,
  0x9c, 0xe5, 0x15, 0xbf, 0x7f, 0xcc, 0x67, 0xf2, 0xf6, 0x46, 0xc8, 0xa9,
  0x2f, 0xc4, 0xaf, 0x31, 0xdd, 0xb2, 0x50, 0x2a, 0xc5, 0x55, 0xd1, 0xef,
  0x2c, 0x05, 0xa0, 0xee, 0xf4, 0x3b, 0x07, 0x1b, 0x81, 0xe0, 0x57, 0xfd,
  0xe4, 0x99, 0xb7, 0xbb, 0xed, 0xa9, 0xc4, 0x42, 0x98, 0xcd, 0xd8, 0x6e,
  0x2a, 0xc1, 0xf9, 0xeb, 0x21, 0x1c, 0x4c, 0x42, 0xa7, 0xa0, 0x14, 0x68,
  0x98, 0x62, 0x0b, 0x37, 0x76, 0xd6, 0x05, 0x04, 0xd8, 0x32, 0xc1, 0xed,
  0x7a, 0xf6, 0xba, 0xcf, 0xf6, 0xcd, 0xec, 0x2f, 0xbc, 0xfe, 0xaf, 0x7f,
  0x61, 0xce, 0x2e, 0xf9, 0x2f, 0xb8, 0x11, 0x3d, 0x11, 0xc7, 0xa2, 0x3f,
  0x5c, 0x8f, 0xbf, 0xf2, 0xb4, 0x25, 0x50, 0x81, 0x10, 0xf1, 0x1a, 0x5e,
  0xa7, 0xec, 0x40, 0x5d, 0x20, 0xfe, 0xbb, 0x3f, 0xac, 0xac, 0x7f, 0xb8,
  0x61, 0x68, 0xde, 0x33, 0xf4, 0x68, 0x9f, 0xd8, 0x17, 0x5b, 0x85, 0x0c,
  0xee, 0x5f, 0x60, 0xd3, 0x72, 0x30, 0xb7, 0x47, 0x86, 0xbb, 0xc1, 0x74,
  0xda, 0x8a, 0xd0, 0xa3, 0x86, 0x63, 0x45, 0xe0, 0xbf, 0x39, 0x60, 0x3e,
  0xfc, 0x0b, 0x48, 0x3c, 0x34, 0x62, 0x7f, 0x30, 0xd8, 0x08, 0xae, 0xb2,
  0xe0, 0x3c, 0xd8, 0x39, 0x68, 0x81, 0xdc, 0x35, 0x24, 0xf1, 0xf3, 0xa0,
  0xb5, 0x23, 0xfb, 0x17, 0x2b, 0x1a, 0xac, 0xa1, 0xe3, 0xe0, 0x78, 0xd3,
  0xb8, 0xd3, 0x19, 0x32, 0x0f, 0x51, 0xb3, 0x0c, 0x71, 0x55, 0x24, 0xd7,
  0x28, 0xbe, 0xb5, 0x58, 0x50, 0x06, 0xcf, 0xcc, 0x35, 0x85, 0x81, 0x54,
  0x22, 0xa0, 0x2b, 0x26, 0x12, 0xed, 0xd8, 0x10, 0x2f, 0x11, 0xe5, 0xc5,
  0xec, 0x7f, 0x7e, 0xba, 0xd1, 0x25, 0xba, 0x02, 0xb3, 0x1a, 0xba, 0xed,
  0xbd, 0x4d, 0x21, 0x49, 0xd5, 0x1f, 0x3f, 0x60, 0x28, 0x47, 0x0b, 0x49,
  0x1e, 0xb6, 0xf5, 0xab, 0x7f, 0xf8, 0xcb, 0x2a, 0xf0, 0xbd, 0x05, 0x01,
  0xfd, 0xcb, 0xb6, 0x24, 0xbb, 0x29, 0x0d, 0xd3, 0xdb, 0x1b, 0xbd, 0x10,
  0xe8, 0xd8, 0x3b, 0x14, 0xe2, 0x1d, 0xc9, 0xf4, 0x9a, 0x20, 0xe3, 0xbe,
  0x14, 0x20, 0x25, 0x8e, 0xee, 0x5e, 0xac, 0x03, 0x0a, 0x56, 0xa7, 0x81,
  0xf5, 0x93, 0x61, 0x18, 0x47, 0x9d, 0xa3, 0x44, 0x51, 0x1f, 0x96, 0x08,
  0xfd, 0x1f, 0xd7, 0x08, 0x25, 0xc8, 0x49, 0x9d, 0x0f, 0xff, 0xe0, 0xf7,
  0xac, 0xfb, 0x11, 0xbe, 0x81, 0x8b, 0xf0, 0x19, 0xe7, 0xc7, 0x8c, 0x43,
  0xce, 0xa9, 0xb7, 0xb0, 0xe8, 0x54, 0x9e, 0xd1, 0x3c, 0x66, 0x5e, 0x77,
  0xea, 0xe0, 0xb2, 0x31, 0x44, 0x81, 0x66, 0xf3, 0x6d, 0xd5, 0x0e, 0xd1,
  0x0a, 0x16, 0x06, 0x45, 0x36, 0xe0, 0xec, 0xc6, 0x47, 0x37, 0x7c, 0x0d,
  0x8f, 0xbd, 0xb9, 0x02, 0xb3, 0xc2, 0x93, 0x98, 0x3b, 0x1e, 0xfc, 0x36,
  0x81, 0x72, 0x7f, 0xc7, 0x72, 0xf2, 0x65, 0x0f, 0x1b, 0x32, 0x7d, 0x27,
  0xc9, 0x81, 0xb6, 0xc1, 0x0b, 0x31, 0x9b, 0xdf, 0x50, 0x2f, 0x1a, 0xf4,
  0xe6, 0x07, 0x32, 0x77, 0xa7, 0xe2, 0x35, 0x2e, 0x79, 0x0d, 0x58, 0xdb,
  0xd2, 0x2f, 0x4b, 0xe9, 0xbb, 0x74, 0x31, 0x48, 0x18, 0x23, 0x07, 0x5c,
  0xcf, 0x02, 0xf6, 0xd3, 0xa5, 0xff, 0xd3, 0xbf, 0x3e, 0xb0, 0x57, 0xd2,
  0x94, 0x4e, 0xb6, 0xe0, 0x5d, 0x7f, 0xed, 0x50, 0x7f, 0xaf, 0x3c, 0xc1,
  0xed, 0xea, 0x2d, 0xf2, 0xb9, 0xd5, 0xc5, 0x15, 0xf4, 0x38, 0xfc, 0x12,
  0xdc, 0x3d, 0xbe, 0x13, 0xf7, 0xe6, 0xe7, 0x38, 0x0c, 0xfe, 0xfb, 0x0d,
  0xab, 0x75, 0x34, 0xd7, 0x13, 0x6a, 0xef, 0x81, 0xb3, 0xf3, 0xca, 0xf8,
  0x49, 0xf1, 0xf3, 0xa4, 0x34, 0xd2, 0xdc, 0x05, 0x31, 0x1f, 0x70, 0x65,
  0x34, 0xf0, 0xa9, 0xa8, 0xf6, 0x77, 0xf8, 0xd7, 0xda, 0x28, 0x81, 0x70,
  0x1b, 0xa9, 0xdc, 0x29, 0xed, 0x1a, 0xef, 0x93, 0x26, 0xf8, 0xc2, 0xe8,
  0x8d, 0xe5, 0xd0, 0x0f, 0x0a, 0x5e, 0x43, 0xc5, 0x92, 0xf3, 0x8f, 0x0a,
  0x7e, 0xe8, 0x6e, 0x81, 0x21, 0xc6, 0x60, 0x5b, 0xd7, 0xf0, 0x1e, 0x52,
  0x14, 0x82, 0x06, 0xbe, 0x40, 0xb5, 0x11, 0x3a, 0x97, 0x8a, 0xee, 0xc2,
  0xf2, 0x81, 0x3e, 0xef, 0xe3, 0xcc, 0xd2, 0x0e, 0x3d, 0xbc, 0x2d, 0x3d,
  0xf7, 0xd9, 0x34, 0xf3, 0xef, 0xdb, 0x07, 0xe1, 0x2c, 0xbc, 0xfa, 0xf0,
  0xa9, 0xfe, 0x28, 0xf4, 0x41, 0x3b, 0x6a, 0xe1, 0x06, 0x81, 0x0e, 0x15,
  0x05, 0xc3, 0xf7, 0xf2, 0xa7, 0x3e, 0xe6, 0x7e, 0x31, 0xf4, 0xd9, 0x03,
  0x8e, 0x08, 0xc7, 0x5d, 0x36, 0xb2, 0x73, 0xcd, 0xc9, 0x74, 0xb3, 0x9e,
  0xa1, 0x1e, 0x11, 0x3a, 0xd7, 0x64, 0xc9, 0xae, 0xe8, 0x42, 0x8b, 0x50,
  0x2f, 0x52, 0xcd, 0x6c, 0x4a, 0x0f, 0x07, 0x7f, 0x0b, 0x27, 0xec, 0xf7,
  0x48, 0x03, 0x5b, 0xc0, 0x2b, 0x95, 0xb6, 0x23, 0xc6, 0x04, 0xbf, 0x70,
  0xaa, 0x3e, 0x18, 0xd1, 0xf2, 0xca, 0xf3, 0x66, 0x51, 0x94, 0x01, 0x7f,
  0x57, 0x5d, 0xaa, 0x58, 0x40, 0x81, 0xce, 0xf4, 0xda, 0xc0, 0x25, 0x5b,
  0xd5, 0xc5, 0x91, 0x72, 0x2c, 0x95, 0x3e, 0x8a, 0x93, 0x48, 0x93, 0x37,
  0xd1, 0xc3, 0x05, 0x09, 0xe0, 0xd4, 0x65, 0x29, 0xb1, 0xa7, 0x33, 0x47,
  0x57, 0xce, 0x86, 0x93, 0xdd, 0x58, 0x1c, 0x6c, 0x35, 0x70, 0xc4, 0xf7,
  0xff, 0xe6, 0x35, 0xb5, 0x40, 0x6d, 0xdb, 0x9f, 0x81, 0xd1, 0xd0, 0x16,
  0xe6, 0x64, 0xb7, 0xc6, 0x42, 0x40, 0xf6, 0x39, 0xc9, 0x12, 0xc3, 0xf0,
  0xea, 0xad, 0xc3, 0x5e, 0xdc, 0xe8, 0xb3, 0x14, 0xdf, 0xc2, 0xcf, 0x36,
  0xa5, 0x06, 0x81, 0x9d, 0xbd, 0x81, 0xb3, 0x32, 0xc6, 0x11, 0x64, 0xe4,
  0xb7, 0x07, 0x10, 0xeb, 0xda, 0xc4, 0xe2, 0x53, 0x71, 0x7e, 0xe4, 0xdd,
  0x2d, 0xf1, 0x04, 0xd7, 0xb6, 0x5c, 0xdf, 0xc2, 0x27, 0xd0, 0x31, 0xbf,
  0x2c, 0xd2, 0x88, 0x09, 0x11, 0x28, 0x97, 0xbc, 0x39, 0xcb, 0x63, 0x56,
  0xf8, 0xd0, 0x8f, 0xbb, 0x57, 0xad, 0x81, 0x18, 0x52, 0xe6, 0xca, 0xa1,
  0x29, 0x7f, 0x0d, 0xdc, 0x1e, 0xd6, 0xd3, 0x32, 0x42, 0x4e, 0xbd, 0xba,
  0xe5, 0xff, 0x3e, 0xe4, 0xd1, 0xac, 0xd3, 0x37, 0xb8, 0x2c, 0xf7, 0xcc,
  0x44, 0xd0, 0xc5, 0x48, 0xcc, 0x1b, 0xf0, 0x16, 0x13, 0x73, 0x81, 0x5a,
  0x54, 0xcc, 0xf0, 0x2b, 0xb9, 0x0e, 0x19, 0xe1, 0x28, 0xff, 0x2a, 0xcb,
  0x0b, 0xfb, 0x68, 0xde, 0xae, 0x52, 0xcb, 0xfd, 0xf6, 0xfc, 0xeb, 0xa2,
  0x0c, 0x91, 0x8d, 0x17, 0x05, 0x52, 0x37, 0x0f, 0xc0, 0x05, 0xe9, 0x26,
  0x50, 0xb6, 0xde, 0x4f, 0x8f, 0xc3, 0x18, 0x7f, 0x32, 0xad, 0x05, 0x0b,
  0xce, 0x4b, 0x61, 0x3d, 0xce, 0x59, 0x81, 0x04, 0xe5, 0xcb, 0xc9, 0x2c,
  0x18, 0x3e, 0x93, 0x44, 0x0c, 0x37, 0x2e, 0x45, 0xf0, 0xdc, 0xe2, 0x06,
  0x5f, 0x49, 0xcc, 0xc4, 0xaf, 0xd5, 0xc2, 0x05, 0x91, 0xc7, 0xdc, 0x6c,
  0xf8, 0x18, 0x4d, 0xd1, 0xaa, 0x9e, 0xfe, 0xc1, 0x5f, 0x7f, 0xac, 0x68,
  0x02, 0x52, 0xa4, 0xdc, 0xd2, 0x02, 0xb9, 0x69, 0x60, 0x58, 0xcb, 0xd6,
  0x86, 0xd0, 0x29, 0x01, 0xbf, 0xdb, 0x13, 0x1e, 0xce, 0xef, 0x16, 0xe2,
  0xe3, 0xf8, 0x64, 0x08, 0xc7, 0x81, 0x0b, 0x24, 0x16, 0xe9, 0xc3, 0xae,
  0x1c, 0xf7, 0x2f, 0x07, 0x6a, 0xe1, 0xe3, 0x1d, 0x84, 0x68, 0xc6, 0x1f,
  0xf2, 0x99, 0xe0, 0x59, 0x4b, 0x09, 0x46, 0xf9, 0xaa, 0x0b, 0x3c, 0x51,
  0x13, 0x7f, 0xeb, 0x96, 0x5f, 0xab, 0xa5, 0x47, 0x21, 0xf6, 0x8b, 0x61,
  0x5c, 0xdb, 0xeb, 0x1c, 0xf3, 0x05, 0xc0, 0xae, 0xef, 0xc9, 0x64, 0xbb,
  0x9e, 0xd3, 0xe0, 0xc0, 0xbb, 0xa7, 0x48, 0x81, 0x81, 0x5d, 0xf1, 0x22,
  0x51, 0x30, 0x3f, 0xa8, 0xeb, 0x96, 0xf8, 0x8e, 0xd3, 0xd4, 0x65, 0xf7,
  0xd1, 0x2f, 0x0f, 0xe6, 0xd4, 0xd7, 0xbb, 0x48, 0x2c, 0x1f, 0x4d, 0xf4,
  0xa2, 0xa8, 0x78, 0x20, 0xff, 0x27, 0x1d, 0x74, 0xfe, 0x47, 0xcb, 0xe6,
  0x2c, 0xb6, 0x76, 0x1e, 0x18, 0x56, 0xfd, 0xc4, 0x83, 0x40, 0xef, 0xb4,
  0xee, 0xe9, 0xfc, 0x81, 0xff, 0xaf, 0x96, 0xd8, 0x53, 0xcd, 0x12, 0xe9,
  0xcf, 0x07, 0x47, 0x31, 0xf9, 0xac, 0x0f, 0x1b, 0x7f, 0x37, 0x92, 0x4e,
  0x0e, 0x05, 0x46, 0x36, 0x66, 0x2d, 0xd9, 0x16, 0x64, 0xad, 0xbe, 0x1b,
  0x4b, 0xf8, 0xd7, 0x0a, 0x81, 0xdc, 0x2c, 0x48, 0xcd, 0xba, 0xd0, 0xe7,
  0xd1, 0xee, 0xbd, 0xb1, 0x41, 0xff, 0xed, 0xc5, 0x42, 0x47, 0x4d, 0xff,
  0xf8, 0xbd, 0xae, 0x6e, 0x40, 0xe1, 0x65, 0xd6, 0xb5, 0x02, 0x1a, 0xba,
  0x3c, 0x35, 0x13, 0x12, 0x7f, 0xf4, 0xe9, 0x0c, 0xda, 0x2a, 0xe1, 0x50,
  0xcd, 0x20, 0x32, 0x83, 0xff, 0x8b, 0xee, 0xe7, 0xf5, 0xd6, 0xc7, 0x7f,
  0x86, 0x2a, 0xe1, 0x3d, 0xb8, 0x38, 0x43, 0xae, 0x3f, 0x78, 0x33, 0xf7,
  0x4a, 0xc6, 0xe3, 0xbf, 0x63, 0x63, 0xe3, 0x67, 0x81, 0xb0, 0x09, 0xe7,
  0x5a, 0xcb, 0x6b, 0x20, 0xd1, 0xae, 0xc4, 0x1b, 0x3d, 0x44, 0x1a, 0x70,
  0xd8, 0xc8, 0x38, 0x18, 0x2e, 0x4f, 0x2d, 0xe8, 0xf1, 0x03, 0x02, 0x8f,
  0x98, 0x7f, 0xd0, 0xf6, 0x56, 0x3a, 0xa8, 0xc3, 0x45, 0xcf, 0x06, 0x16,
  0x04, 0x3f, 0xd2, 0xd2, 0x22, 0x4a, 0x20, 0x28, 0xab, 0xd7, 0x00, 0x15,
  0xa6, 0xa7, 0xe6, 0xcb, 0x20, 0x72, 0xbc, 0xe8, 0x3f, 0xa3, 0x3a, 0x08,
  0x3a, 0x3a, 0x9a, 0x36, 0x9b, 0x8f, 0x1b, 0x1d, 0xfa, 0xb6, 0xf6, 0xa3,
  0x7f, 0x38, 0xe4, 0x18, 0xfa, 0x2c, 0x8c, 0x28, 0x0a, 0xe9, 0xb1, 0x88,
  0x41, 0x2a, 0x7f, 0x6d, 0xe0, 0x00, 0x35, 0x00, 0x6d, 0x4b, 0xdc, 0x1b,
  0xec, 0x02, 0xde, 0x5b, 0x57, 0xdf, 0x5f, 0x4f, 0x4c, 0x12, 0xb0, 0x21,
  0xdf, 0x4b, 0x19, 0x50, 0xcc, 0xbb, 0xfc, 0xbc, 0x3c, 0x62, 0x29, 0xd6,
  0xe5, 0xe9, 0x5e, 0xd8, 0x8d, 0x96, 0x1e, 0x61, 0xc7, 0xff, 0xde, 0xd9,
  0xb3, 0x81, 0xa3, 0xa2, 0x1a, 0xdb, 0xbd, 0x53, 0x0e, 0x2b, 0xaa, 0x32,
  0xe8, 0x1e, 0xa6, 0xda, 0x0b, 0xeb, 0x1c, 0x20, 0x2c, 0xa2, 0x0f, 0xee,
  0x1d, 0x17, 0x16, 0x24, 0xe9, 0x43, 0x81, 0xe9, 0x02, 0xf3, 0xff, 0xff,
  0x04, 0x00, 0x00, 0x00, 0x00, 0x01, 0x00, 0x00, 0x78, 0xfd, 0xff, 0xff,
  0xb5, 0xfd, 0xff, 0xff, 0x22, 0xfe, 0xff, 0xff, 0x14, 0x00, 0x00, 0x00,
  0x19, 0x00, 0x00, 0x00, 0x1d, 0x02, 0x00, 0x00, 0x61, 0x04, 0x00, 0x00,
  0xac, 0x01, 0x00, 0x00, 0x5e, 0x00, 0x00, 0x00, 0x93, 0xfd, 0xff, 0xff,
  0x4f, 0x00, 0x00, 0x00, 0x4f, 0x01, 0x00, 0x00, 0xda, 0xfd, 0xff, 0xff,
  0x7c, 0xff, 0xff, 0xff, 0x4a, 0xff, 0xff, 0xff, 0x62, 0x03, 0x00, 0x00,
  0x4b, 0xfd, 0xff, 0xff, 0x05, 0x03, 0x00, 0x00, 0x2e, 0x02, 0x00, 0x00,
  0xe0, 0xfd, 0xff, 0xff, 0x54, 0x00, 0x00, 0x00, 0x7a, 0xff, 0xff, 0xff,
  0x33, 0x00, 0x00, 0x00, 0x05, 0x02, 0x00, 0x00, 0x2b, 0xfe, 0xff, 0xff,
  0x76, 0xff, 0xff, 0xff, 0xda, 0xff, 0xff, 0xff, 0x03, 0xff, 0xff, 0xff,
  0x02, 0x01, 0x00, 0x00, 0x6c, 0xfe, 0xff, 0xff, 0x01, 0xff, 0xff, 0xff,
  0x1b, 0x01, 0x00, 0x00, 0xcb, 0x01, 0x00, 0x00, 0x60, 0xff, 0xff, 0xff,
  0x51, 0x01, 0x00, 0x00, 0xe6, 0xff, 0xff, 0xff, 0x97, 0xfe, 0xff, 0xff,
  0xca, 0xff, 0xff, 0xff, 0x65, 0xfe, 0xff, 0xff, 0x73, 0xff, 0xff, 0xff,
  0x46, 0xff, 0xff, 0xff, 0x10, 0x00, 0x00, 0x00, 0x3d, 0x01, 0x00, 0x00,
  0x0f, 0xfb, 0xff, 0xff, 0x5b, 0x01, 0x00, 0x00, 0xe8, 0xff, 0xff, 0xff,
  0x0d, 0x02, 0x00, 0x00, 0x99, 0x02, 0x00, 0x00, 0x67, 0xff, 0xff, 0xff,
  0xa8, 0xfe, 0xff, 0xff, 0xf0, 0x02, 0x00, 0x00, 0x16, 0xfd, 0xff, 0xff,
  0x35, 0x00, 0x00, 0x00, 0xae, 0xfd, 0xff, 0xff, 0x0e, 0xfc, 0xff, 0xff,
  0x30, 0x00, 0x00, 0x00, 0xfd, 0xff, 0xff, 0xff, 0x16, 0x02, 0x00, 0x00,
  0xc8, 0x01, 0x00, 0x00, 0x46, 0x00, 0x00, 0x00, 0xbe, 0x02, 0x00, 0x00,
  0x8a, 0xfd, 0xff, 0xff, 0xce, 0xfd, 0xff, 0xff, 0x56, 0xfe, 0xff, 0xff,
  0x0e, 0xf4, 0xff, 0xff, 0x04, 0x00, 0x00, 0x00, 0x00, 0x08, 0x00, 0x00,
  0x51, 0xa3, 0xf6, 0xbf, 0xc3, 0x01, 0xd3, 0xc4, 0xec, 0x7f, 0xff, 0x06,
  0xec, 0x35, 0x22, 0x58, 0xbf, 0xb9, 0xe5, 0xbc, 0x4c, 0x18, 0x4f, 0x58,
  0x6c, 0x10, 0x31, 0x29, 0xf4, 0xfc, 0x06, 0xfc, 0x95, 0x60, 0xf5, 0xc8,
  0x1e, 0x19, 0xe7, 0x08, 0x22, 0x22, 0x0e, 0xf1, 0x36, 0xb6, 0x8c, 0xb4,
  0xe6, 0x32, 0x36, 0x10, 0xed, 0xb5, 0xf2, 0xf4, 0x63, 0x07, 0x15, 0x98,
  0xbe, 0xc3, 0x24, 0x48, 0xf2, 0x57, 0xa8, 0x39, 0xa6, 0xe9, 0xbd, 0x54,
  0xf5, 0xbc, 0x74, 0x00, 0x4c, 0xb3, 0xeb, 0xf0, 0xde, 0xc8, 0xd7, 0xc9,
  0x3a, 0xbe, 0xa7, 0x60, 0x0a, 0xca, 0xdb, 0xec, 0x2f, 0x2d, 0x61, 0xd1,
  0xaf, 0xa4, 0xe7, 0xf2, 0x26, 0x3b, 0x09, 0x27, 0xa1, 0x2b, 0x53, 0xc5,
  0xed, 0x58, 0xd6, 0xed, 0x5b, 0xd5, 0x0e, 0x17, 0x7f, 0xeb, 0xc5, 0xb1,
  0xed, 0xd5, 0x49, 0x0b, 0x64, 0x37, 0x59, 0xdf, 0xd5, 0x5e, 0xa4, 0x51,
  0x50, 0x37, 0x62, 0xe8, 0x05, 0xd9, 0x33, 0x13, 0x44, 0x52, 0x2b, 0xe7,
  0x31, 0x33, 0x07, 0x2e, 0xfb, 0xae, 0x34, 0x6d, 0xa2, 0x12, 0xe3, 0x06,
  0x0b, 0xd4, 0xce, 0xd5, 0x2a, 0x3f, 0xa3, 0x81, 0x16, 0x79, 0xee, 0xdc,
  0xeb, 0x10, 0xd6, 0x31, 0x2f, 0x3d, 0x2f, 0x16, 0x3a, 0x4d, 0x51, 0xf6,
  0x71, 0xe6, 0xd1, 0xc6, 0xf1, 0xcf, 0x11, 0xf4, 0x26, 0xdd, 0xdc, 0x0d,
  0xc6, 0x7f, 0xee, 0xdc, 0x46, 0x44, 0xdf, 0x58, 0x90, 0xfe, 0xa1, 0x2c,
  0x43, 0xfb, 0xcc, 0xec, 0x4b, 0x98, 0xf7, 0xcb, 0xfd, 0x44, 0xba, 0x00,
  0x50, 0xeb, 0x4f, 0xb4, 0xca, 0xf0, 0xcd, 0x65, 0x3b, 0x99, 0xee, 0xa1,
  0xb0, 0x1b, 0xe3, 0xd6, 0xe3, 0x4b, 0xc0, 0x07, 0x75, 0xd1, 0x33, 0xe5,
  0xbb, 0xf6, 0xf7, 0xa4, 0xa1, 0x30, 0x15, 0x65, 0x87, 0xe8, 0x18, 0xc0,
  0x26, 0x00, 0x65, 0x2e, 0xeb, 0x26, 0x41, 0x42, 0x08, 0xf7, 0xfd, 0xe1,
  0x1f, 0x16, 0x39, 0xbc, 0xe4, 0xb4, 0xe7, 0xde, 0x9e, 0x0d, 0x00, 0xc1,
  0x5f, 0x33, 0xed, 0x1e, 0x5e, 0xb5, 0xe7, 0x15, 0xba, 0x2b, 0x21, 0x64,
  0xe0, 0xf2, 0xb8, 0x57, 0xe2, 0x27, 0xf7, 0x77, 0xc6, 0xe0, 0xfb, 0x26,
  0xb3, 0x8d, 0xd9, 0xdc, 0x51, 0xd5, 0xc0, 0x46, 0xc2, 0x4f, 0xbf, 0x77,
  0xb5, 0xca, 0xae, 0xdd, 0x81, 0x45, 0x39, 0xf1, 0x5b, 0x1c, 0xc9, 0xb7,
  0x62, 0x22, 0xea, 0x65, 0xe9, 0xab, 0x38, 0xc1, 0xe2, 0xe5, 0x90, 0x3d,
  0xa4, 0x3a, 0xf9, 0xc4, 0x12, 0x87, 0x36, 0xc6, 0x0a, 0xa7, 0xe0, 0x3e,
  0x3c, 0xf3, 0x26, 0xd7, 0x08, 0x69, 0x19, 0xaa, 0xe0, 0x32, 0xd4, 0x31,
  0xf0, 0x27, 0x81, 0xf6, 0x29, 0x2e, 0xf2, 0xd0, 0x2e, 0x1e, 0xd9, 0x49,
  0x0e, 0x09, 0x48, 0xa4, 0x10, 0xe8, 0xe1, 0xb2, 0xb0, 0xaa, 0xbd, 0x0e,
  0xb8, 0xb9, 0x0e, 0xe1, 0x5d, 0x13, 0xa6, 0x01, 0x2f, 0x91, 0xc5, 0xe9,
  0xea, 0xcf, 0xef, 0x03, 0x98, 0x18, 0x29, 0xdf, 0x44, 0xd3, 0x7c, 0x52,
  0x58, 0xe9, 0x31, 0x25, 0x8a, 0xcd, 0xa4, 0x95, 0x0e, 0x60, 0xdd, 0x58,
  0xa9, 0x2d, 0xce, 0x1f, 0x0c, 0xf9, 0xaa, 0x4c, 0xfe, 0x7f, 0x4c, 0x58,
  0x51, 0xe9, 0x04, 0x08, 0x9a, 0x32, 0x27, 0xa3, 0x35, 0xd7, 0x97, 0xeb,
  0xbf, 0xe1, 0xcb, 0x0f, 0xf2, 0xb9, 0xe3, 0xab, 0x6e, 0xfe, 0x55, 0x39,
  0xb0, 0xfd, 0x48, 0xe9, 0xfd, 0xc1, 0x8e, 0x5d, 0x43, 0x0d, 0xba, 0x67,
  0xbc, 0x23, 0xcc, 0xc7, 0x07, 0xe4, 0x93, 0xe6, 0x0d, 0x30, 0xcf, 0x42,
  0xab, 0x60, 0xf5, 0x64, 0x98, 0xea, 0x15, 0x3f, 0x43, 0x24, 0xb9, 0x3f,
  0x7e, 0x73, 0x32, 0x07, 0x0e, 0xaf, 0xad, 0x2c, 0xe2, 0x98, 0xd0, 0xb6,
  0x0e, 0x53, 0xa8, 0x12, 0x53, 0x8c, 0x7f, 0x25, 0xb2, 0x2b, 0xf2, 0x46,
  0xc5, 0x46, 0x1b, 0xf8, 0x0b, 0x52, 0xd0, 0x7f, 0xfa, 0xd1, 0xb9, 0x43,
  0xd0, 0xf2, 0x59, 0x19, 0x0d, 0x65, 0xc7, 0xea, 0xc4, 0x0f, 0xe3, 0xfd,
  0x10, 0x0f, 0xc7, 0x54, 0xd4, 0xfb, 0xbe, 0x57, 0xb4, 0x14, 0x25, 0x17,
  0xc7, 0xef, 0xce, 0x58, 0x40, 0xbc, 0xc0, 0xe7, 0xde, 0xd2, 0xa9, 0xed,
  0x10, 0xd7, 0x4a, 0x2b, 0x1b, 0x34, 0xc2, 0x09, 0x9d, 0x39, 0x24, 0xe2,
  0xc0, 0x7f, 0xb1, 0xf3, 0x9a, 0xf4, 0xf5, 0x8e, 0x68, 0x42, 0xed, 0x50,
  0x45, 0xd6, 0xcd, 0x70, 0x50, 0x40, 0x67, 0x8a, 0x0e, 0x01, 0x12, 0xb1,
  0x37, 0xf1, 0x15, 0x07, 0x9f, 0x53, 0x12, 0x03, 0xe8, 0x2d, 0xe5, 0x7b,
  0xdc, 0xb4, 0x24, 0x31, 0xb3, 0xe4, 0xd8, 0x14, 0x9f, 0xd4, 0xf5, 0xee,
  0x26, 0xda, 0xef, 0x17, 0x56, 0xf2, 0x01, 0x37, 0x54, 0x72, 0xae, 0xab,
  0x03, 0x1d, 0xe4, 0xf3, 0x31, 0xa3, 0xe5, 0xb8, 0x6e, 0x1a, 0xe0, 0xec,
  0x9f, 0xde, 0xf8, 0x24, 0xb9, 0x71, 0xf5, 0xcb, 0x65, 0x55, 0x03, 0x13,
  0x59, 0x2d, 0x58, 0x0f, 0xb5, 0x4d, 0x50, 0x5e, 0xf4, 0x6e, 0xc6, 0xbf,
  0xbd, 0xc9, 0x7f, 0xcf, 0xdc, 0xc5, 0x88, 0xa1, 0x44, 0x30, 0x24, 0x9c,
  0xcb, 0xd0, 0xf0, 0xa1, 0xd0, 0xd8, 0xb4, 0x4e, 0x5b, 0x2c, 0x05, 0x5d,
  0x37, 0x07, 0x54, 0xe7, 0xff, 0x07, 0xfe, 0xc8, 0x23, 0x93, 0x46, 0xfa,
  0x3a, 0x2e, 0x2e, 0x51, 0x0f, 0x35, 0xcf, 0xf2, 0xde, 0xe1, 0x81, 0xd1,
  0xfd, 0x4e, 0xd4, 0xc5, 0x0a, 0x53, 0x1f, 0x0f, 0x92, 0x42, 0x4e, 0xc0,
  0x87, 0x55, 0x62, 0xb3, 0x44, 0x56, 0x48, 0xd0, 0x65, 0x43, 0x32, 0xd2,
  0x4c, 0x06, 0xac, 0xbb, 0x0e, 0xe4, 0xf6, 0xb5, 0xb6, 0x40, 0x18, 0x65,
  0x5a, 0x8d, 0x58, 0xa0, 0xe6, 0xe6, 0x65, 0x55, 0xd3, 0x14, 0x2e, 0x32,
  0x0e, 0x1e, 0x1a, 0xf4, 0xb3, 0xbd, 0x9b, 0xf5, 0xcc, 0x7f, 0x12, 0x32,
  0xbb, 0x55, 0xdd, 0x5a, 0x10, 0x0d, 0x31, 0x55, 0x3d, 0x3d, 0xe7, 0x30,
  0x52, 0x0b, 0x2f, 0x0a, 0x1b, 0x00, 0xd2, 0xee, 0x31, 0xef, 0x01, 0x35,
  0x27, 0xcb, 0x05, 0xe9, 0x29, 0xb7, 0x36, 0x38, 0x9a, 0xe0, 0xb3, 0xf7,
  0xe1, 0x2f, 0xe5, 0x17, 0x2b, 0x53, 0x15, 0x4a, 0x61, 0x38, 0xbc, 0x3b,
  0x0c, 0xcc, 0xcf, 0x66, 0x46, 0x07, 0xf5, 0xdc, 0x2f, 0x31, 0x1f, 0xd0,
  0x99, 0xd5, 0x48, 0x4d, 0xbf, 0xdc, 0x10, 0xa0, 0xd1, 0x27, 0x19, 0x1f,
  0x38, 0xd2, 0x49, 0xaf, 0xe0, 0x51, 0xce, 0x41, 0x93, 0x0f, 0x88, 0xac,
  0xfd, 0xe2, 0x04, 0x9d, 0x81, 0xc5, 0x9c, 0x01, 0x70, 0x42, 0xc1, 0xe9,
  0x29, 0xbe, 0x23, 0x9d, 0x02, 0xf1, 0x47, 0xfb, 0xec, 0x5f, 0xa8, 0x29,
  0x41, 0x05, 0x12, 0x51, 0x70, 0xf1, 0xc7, 0x5e, 0x15, 0x09, 0x18, 0xd3,
  0x20, 0xda, 0x2e, 0x6f, 0x02, 0x0d, 0xc5, 0xd2, 0x15, 0x04, 0xaa, 0xaf,
  0x30, 0xf6, 0xbd, 0xc3, 0x55, 0x49, 0x40, 0xe3, 0xa5, 0x46, 0x19, 0x15,
  0xcb, 0x2b, 0xeb, 0xc5, 0xf9, 0x45, 0x0f, 0xd3, 0xd8, 0xec, 0x06, 0x41,
  0xea, 0xaf, 0x4f, 0xd0, 0x56, 0x3d, 0xa5, 0x7f, 0xe8, 0x03, 0x42, 0xc1,
  0x03, 0xb4, 0xf0, 0x1d, 0xe1, 0x47, 0xc1, 0xcb, 0x31, 0x35, 0x51, 0xf5,
  0xd4, 0x46, 0x53, 0x61, 0x00, 0x6a, 0x6f, 0x31, 0x06, 0x4e, 0xef, 0x14,
  0x2b, 0x02, 0x23, 0x7f, 0xe6, 0xb8, 0xe5, 0xdd, 0x32, 0xda, 0x29, 0x3c,
  0x12, 0xfa, 0x1b, 0xe9, 0x2a, 0xc2, 0xf7, 0x2a, 0xaf, 0x17, 0xdc, 0xc4,
  0xf0, 0xb7, 0xd9, 0xd2, 0x4d, 0x1d, 0xf6, 0x33, 0x04, 0xdc, 0xb0, 0x9e,
  0xcc, 0xcd, 0x38, 0x13, 0xfb, 0x12, 0xed, 0xfe, 0xfe, 0x5f, 0xa8, 0xce,
  0x16, 0xdc, 0xb4, 0xc9, 0xf9, 0x36, 0x0a, 0xf2, 0xe3, 0x63, 0xbd, 0xb4,
  0xed, 0x3b, 0xb4, 0x55, 0x81, 0x5b, 0x66, 0xa8, 0x04, 0x47, 0x5a, 0x08,
  0x00, 0x2b, 0x19, 0x0a, 0xd4, 0x09, 0x1f, 0xb6, 0xbe, 0xea, 0x9a, 0x4c,
  0x19, 0x0f, 0x31, 0x2e, 0x46, 0xf7, 0xe4, 0x06, 0x2a, 0xaf, 0xeb, 0xfb,
  0xeb, 0x99, 0x5f, 0xec, 0xdc, 0x48, 0x06, 0xf9, 0x36, 0xce, 0xb2, 0x7e,
  0xea, 0x79, 0x34, 0x52, 0xa5, 0x59, 0xf9, 0xb9, 0xfd, 0x48, 0xfa, 0xc6,
  0x78, 0xd8, 0xe1, 0x4b, 0x47, 0xe6, 0xe4, 0xa0, 0x5c, 0x05, 0xb6, 0x08,
  0xa3, 0xf9, 0xa8, 0xcf, 0x1c, 0x9f, 0xf8, 0x23, 0xa8, 0x21, 0xd8, 0x39,
  0xdd, 0xad, 0x23, 0xfa, 0x52, 0x1a, 0x2f, 0xdc, 0x00, 0xfc, 0x2c, 0xa8,
  0xd0, 0x19, 0xef, 0x13, 0x0d, 0x4c, 0x7f, 0x66, 0x0c, 0x39, 0x1d, 0x3e,
  0xfa, 0x48, 0xfa, 0x9b, 0x9c, 0x1c, 0x03, 0xcb, 0xcf, 0x51, 0xc6, 0xb3,
  0xfc, 0xa0, 0x03, 0xfb, 0x09, 0x32, 0xf2, 0x02, 0xa7, 0x7a, 0xcd, 0x9b,
  0x51, 0x1b, 0xfc, 0xc4, 0x14, 0xd1, 0x24, 0x03, 0x04, 0xdf, 0x4f, 0x23,
  0xe7, 0x17, 0xa2, 0x3a, 0x6f, 0x4c, 0xd4, 0x7c, 0xac, 0xac, 0xcd, 0xe0,
  0x7f, 0xc1, 0xd2, 0x15, 0x05, 0xe1, 0x75, 0x0b, 0x05, 0x9f, 0xc1, 0x49,
  0xec, 0xe0, 0xf3, 0x0d, 0x0c, 0xf8, 0x1a, 0xc4, 0x67, 0xf9, 0xfc, 0xa2,
  0xc4, 0xb3, 0x5c, 0x45, 0xf8, 0xe1, 0x86, 0x52, 0x4e, 0x36, 0xb6, 0xf2,
  0xc7, 0x9a, 0xcd, 0xef, 0xcd, 0x58, 0x22, 0xa6, 0x78, 0xf4, 0x47, 0x3b,
  0xec, 0x41, 0x52, 0xe4, 0x2c, 0x1e, 0x5f, 0xba, 0xd2, 0x91, 0x0e, 0xdc,
  0xe4, 0x8d, 0x45, 0x14, 0xb3, 0x31, 0x83, 0x2e, 0x42, 0x1d, 0xf7, 0x16,
  0x15, 0x1d, 0x65, 0x7f, 0xd8, 0xbf, 0x03, 0xb9, 0xcd, 0xdc, 0xa6, 0xc0,
  0xcb, 0x1b, 0x44, 0xe7, 0xbd, 0xbd, 0x60, 0x88, 0xe6, 0xd1, 0x08, 0x2f,
  0xfb, 0x47, 0xfc, 0x74, 0x52, 0xa0, 0xb1, 0x3e, 0x14, 0x2a, 0xf3, 0xa1,
  0xd7, 0x96, 0xe3, 0xa6, 0xd1, 0xd9, 0xbc, 0x89, 0x44, 0x8a, 0x1f, 0xbe,
  0xbc, 0xbf, 0x6e, 0x01, 0xd7, 0xfb, 0x8e, 0xbe, 0xbf, 0x03, 0x0b, 0x59,
  0xa2, 0x1c, 0x4c, 0xa5, 0x87, 0xce, 0x2a, 0x9c, 0xf6, 0x12, 0x81, 0x5e,
  0xc5, 0x11, 0x3d, 0xa9, 0xfb, 0x0b, 0x2e, 0x1b, 0x3d, 0x99, 0x0e, 0x03,
  0x76, 0x1d, 0x3d, 0x22, 0x45, 0xdb, 0xa3, 0xdc, 0xd4, 0xf6, 0x9b, 0xa6,
  0x62, 0x5f, 0x50, 0x3f, 0x7f, 0xe5, 0xa4, 0x8c, 0xcd, 0x72, 0x0f, 0x70,
  0x02, 0x36, 0x75, 0xa0, 0x03, 0x29, 0x5b, 0xf7, 0x5d, 0xce, 0x11, 0x4a,
  0x0b, 0x83, 0xe2, 0x34, 0x44, 0x1a, 0x44, 0xca, 0x5c, 0x29, 0xd9, 0x9e,
  0x04, 0xbb, 0xc9, 0x10, 0x90, 0xa0, 0xd2, 0x5f, 0xb1, 0x2d, 0x8c, 0x19,
  0x5e, 0xb3, 0x31, 0xe6, 0x99, 0xd8, 0xe6, 0xbf, 0x3e, 0x8c, 0x55, 0x2e,
  0x21, 0x40, 0x6d, 0xe0, 0x92, 0xba, 0xff, 0x20, 0x3e, 0xe0, 0xbc, 0x5d,
  0xf3, 0x75, 0xa0, 0x7f, 0x3f, 0x2a, 0x41, 0xa8, 0xf9, 0x1d, 0xca, 0x25,
  0x42, 0x42, 0xc8, 0xa2, 0xc8, 0xfd, 0x3f, 0x18, 0xcc, 0x92, 0x97, 0x07,
  0xc1, 0x90, 0x50, 0xda, 0xa0, 0x22, 0xb4, 0xb8, 0x0a, 0x5b, 0xa1, 0x47,
  0x29, 0x98, 0x8a, 0x37, 0x50, 0x2b, 0xd4, 0x28, 0xf0, 0x82, 0xad, 0xf5,
  0xd4, 0x0d, 0x84, 0x16, 0xb9, 0x3d, 0x8c, 0x6e, 0x25, 0xc9, 0x2e, 0x1c,
  0xdd, 0xf2, 0xb7, 0xe5, 0x4b, 0xd4, 0x0d, 0xec, 0x52, 0x1c, 0x0a, 0x5b,
  0xa3, 0x3e, 0xb6, 0xf2, 0x9b, 0x0b, 0xd8, 0x2a, 0x06, 0xdf, 0x9b, 0x15,
  0x41, 0xc4, 0x07, 0xe2, 0x07, 0x22, 0x7f, 0x0a, 0xbc, 0x5c, 0x7d, 0x5b,
  0x13, 0x0a, 0x61, 0x71, 0x15, 0x66, 0x26, 0x8c, 0xa1, 0xe0, 0x67, 0xe9,
  0xb4, 0x29, 0xba, 0xd9, 0xfa, 0x35, 0xe3, 0x1c, 0x39, 0x2b, 0xe5, 0x17,
  0x18, 0xd0, 0x43, 0xfc, 0xeb, 0x06, 0x31, 0x1e, 0x25, 0x18, 0xe7, 0x32,
  0x4c, 0xb6, 0x36, 0x08, 0xfd, 0xf4, 0x60, 0xbe, 0xb5, 0xf5, 0xaa, 0xb8,
  0xf6, 0xfd, 0x17, 0xf6, 0xc0, 0xd1, 0xba, 0x0e, 0x24, 0x56, 0x12, 0x44,
  0x45, 0x3d, 0x0f, 0xc7, 0x04, 0x35, 0xaf, 0xb4, 0xfa, 0x6b, 0x81, 0x5d,
  0x42, 0xe2, 0xf1, 0x33, 0x7a, 0x81, 0x0c, 0xd5, 0x22, 0x52, 0xbb, 0x5a,
  0xd1, 0xf4, 0xbb, 0xde, 0xc3, 0xb0, 0x4b, 0xc5, 0x7a, 0xae, 0xef, 0x02,
  0xd7, 0xbc, 0x0f, 0x24, 0xe1, 0x20, 0x75, 0x5d, 0xcf, 0xfb, 0xc6, 0xc2,
  0x8f, 0x05, 0x32, 0x18, 0x5e, 0xad, 0xfb, 0x4a, 0x51, 0x50, 0x69, 0xbf,
  0x2a, 0x69, 0x0d, 0xdd, 0x1f, 0x3e, 0xd5, 0xce, 0x69, 0x51, 0xc0, 0xe4,
  0x53, 0xe9, 0x6e, 0x61, 0xfc, 0x4b, 0xfb, 0x9d, 0x48, 0x1e, 0xb6, 0x12,
  0xf2, 0xce, 0xb3, 0x08, 0x20, 0x75, 0x02, 0xd6, 0x8e, 0x52, 0x19, 0xf7,
  0x26, 0x7f, 0xca, 0x25, 0x9d, 0xbf, 0x58, 0xa6, 0xf1, 0x62, 0x14, 0xd3,
  0xe4, 0x8c, 0x1f, 0x61, 0xf4, 0x3f, 0x4d, 0x00, 0x37, 0x42, 0xa7, 0x3e,
  0x46, 0xf6, 0x2b, 0xbd, 0x9b, 0x01, 0xcf, 0xed, 0xd2, 0x01, 0x61, 0xb7,
  0x15, 0xbd, 0x29, 0x46, 0x4b, 0x23, 0x34, 0x34, 0xab, 0x3f, 0x10, 0xc1,
  0x00, 0x20, 0x1e, 0x4d, 0xf2, 0x7a, 0x34, 0x52, 0x2b, 0xcb, 0xaf, 0x40,
  0xc7, 0x6b, 0xef, 0x28, 0xcf, 0x9b, 0x7f, 0x3a, 0x16, 0xb8, 0x5e, 0xec,
  0x07, 0xd6, 0xcb, 0x4c, 0x24, 0x01, 0x2d, 0x27, 0x0e, 0x5e, 0x90, 0xd6,
  0xc4, 0xb4, 0xc0, 0x72, 0x5c, 0xc5, 0x61, 0xc4, 0xc6, 0x2d, 0x28, 0x2a,
  0xf0, 0x44, 0x60, 0xf7, 0xeb, 0xc5, 0xae, 0x18, 0xbb, 0x63, 0x1a, 0xef,
  0xc7, 0x9b, 0x11, 0xc6, 0x4b, 0x47, 0xce, 0x16, 0xd8, 0x4a, 0xee, 0xc4,
  0xf1, 0x65, 0x75, 0x82, 0x78, 0x19, 0xea, 0xc4, 0x41, 0x5f, 0x5b, 0xe5,
  0x81, 0x55, 0xe9, 0x10, 0xee, 0x14, 0xfb, 0x6e, 0xae, 0xc5, 0x50, 0x03,
  0x1c, 0x40, 0x32, 0x3e, 0xbd, 0x7e, 0xbc, 0x99, 0xd8, 0x68, 0x3c, 0xa3,
  0xfc, 0x5c, 0x7b, 0x49, 0xb5, 0xb4, 0x02, 0x2b, 0xfe, 0x2d, 0x78, 0x84,
  0x15, 0xad, 0x31, 0x5a, 0xaa, 0x5f, 0xcc, 0x68, 0xbd, 0xff, 0x9f, 0xe5,
  0x29, 0x5f, 0x4b, 0x85, 0xa4, 0xd6, 0x7b, 0xdc, 0xda, 0xf0, 0xb5, 0x13,
  0x54, 0x5a, 0xe8, 0x50, 0xfc, 0x7f, 0x0e, 0x78, 0xeb, 0x50, 0x00, 0xee,
  0x40, 0x09, 0xed, 0xc9, 0x36, 0xbc, 0x88, 0xb7, 0xba, 0x3c, 0x5e, 0xf1,
  0xef, 0x9b, 0xf1, 0x0b, 0x61, 0x24, 0x17, 0x5b, 0xa8, 0xa7, 0xa1, 0xbd,
  0x63, 0x3c, 0xc5, 0x48, 0x3a, 0x29, 0xd0, 0x00, 0x1f, 0xd8, 0x1a, 0x3b,
  0x3b, 0x2a, 0x11, 0x48, 0x9c, 0x01, 0x14, 0xb2, 0x7b, 0x41, 0xda, 0xca,
  0x3c, 0x08, 0xef, 0xe1, 0x0f, 0x8c, 0x33, 0x4e, 0xfa, 0x56, 0x0d, 0x21,
  0xd7, 0xdd, 0xf7, 0xb7, 0xdd, 0x06, 0x89, 0xe9, 0xf8, 0x05, 0xbf, 0x0f,
  0xdd, 0xeb, 0x41, 0x66, 0xf6, 0x06, 0xb8, 0x5b, 0xf7, 0xdf, 0xc8, 0xfb,
  0x39, 0x34, 0x8a, 0x53, 0xcf, 0x14, 0xed, 0x3c, 0x2c, 0x53, 0x81, 0xfc,
  0x3c, 0x67, 0x39, 0xd6, 0x36, 0xcc, 0xc3, 0x50, 0x3b, 0xf7, 0x1c, 0xd5,
  0x53, 0x1a, 0xbd, 0xb0, 0xae, 0x2c, 0x0b, 0xda, 0xaa, 0xd0, 0xbf, 0x0a,
  0x13, 0x3f, 0xc9, 0x07, 0x39, 0x81, 0x5c, 0x1d, 0x0e, 0x27, 0x00, 0x3e,
  0xd4, 0xcc, 0xb8, 0x08, 0x4e, 0xf4, 0xc3, 0x0d, 0x24, 0xf8, 0x4b, 0x59,
  0x38, 0x8d, 0xab, 0xa9, 0x42, 0x51, 0x27, 0x17, 0xc0, 0x4c, 0x75, 0xf4,
  0xf8, 0x09, 0xfb, 0xfe, 0x9e, 0xcc, 0x23, 0xda, 0x1a, 0xfc, 0xff, 0xff,
  0x04, 0x00, 0x00, 0x00, 0x80, 0x00, 0x00, 0x00, 0xbd, 0x03, 0x00, 0x00,
  0xb2, 0x02, 0x00, 0x00, 0x15, 0x06, 0x00, 0x00, 0x08, 0x03, 0x00, 0x00,
  0x87, 0xfd, 0xff, 0xff, 0x2f, 0xff, 0xff, 0xff, 0x6b, 0xfd, 0xff, 0xff,
  0x9b, 0x00, 0x00, 0x00, 0x67, 0x05, 0x00, 0x00, 0xb4, 0x03, 0x00, 0x00,
  0x94, 0x02, 0x00, 0x00, 0x6d, 0xfc, 0xff, 0xff, 0x7e, 0x00, 0x00, 0x00,
  0xdc, 0xff, 0xff, 0xff, 0x18, 0x02, 0x00, 0x00, 0x3d, 0x06, 0x00, 0x00,
  0xb3, 0x00, 0x00, 0x00, 0xbb, 0xff, 0xff, 0xff, 0x6d, 0x03, 0x00, 0x00,
  0x76, 0xfc, 0xff, 0xff, 0xb1, 0x01, 0x00, 0x00, 0xe4, 0x02, 0x00, 0x00,
  0xfd, 0xfc, 0xff, 0xff, 0x6b, 0x01, 0x00, 0x00, 0xe7, 0x03, 0x00, 0x00,
  0x2f, 0xff, 0xff, 0xff, 0xde, 0xfe, 0xff, 0xff, 0x86, 0x0a, 0x00, 0x00,
  0x11, 0xfe, 0xff, 0xff, 0x34, 0xff, 0xff, 0xff, 0xd1, 0x05, 0x00, 0x00,
  0x6c, 0x05, 0x00, 0x00, 0xa6, 0xfc, 0xff, 0xff, 0x04, 0x00, 0x00, 0x00,
  0x00, 0x02, 0x00, 0x00, 0x76, 0x0a, 0xf1, 0xc7, 0x3f, 0xf7, 0x20, 0xbc,
  0xec, 0xc4, 0xbb, 0xe4, 0x0a, 0x81, 0x40, 0xef, 0x0f, 0xa7, 0x6e, 0x21,
  0xf7, 0x59, 0x3a, 0x48, 0x2c, 0xff, 0xe0, 0x04, 0xde, 0xfc, 0x62, 0x74,
  0xb7, 0x9c, 0x05, 0x4a, 0x39, 0x30, 0xf0, 0x8b, 0x56, 0x20, 0x1f, 0x56,
  0x0c, 0x14, 0xbd, 0x1e, 0x70, 0xb9, 0xc6, 0xfd, 0x27, 0x12, 0x0a, 0x7f,
  0xc8, 0x85, 0x24, 0xd8, 0xe2, 0xca, 0x9f, 0x1e, 0x5d, 0x06, 0x7e, 0xe2,
  0xc0, 0xd6, 0xc0, 0xe1, 0x81, 0xc8, 0x67, 0xc3, 0x53, 0x8f, 0x75, 0xa9,
  0x91, 0x3b, 0x64, 0xb8, 0x9a, 0x0d, 0xda, 0xe9, 0xb7, 0x30, 0xd9, 0x6f,
  0x31, 0xfb, 0xb8, 0xea, 0xa2, 0x5a, 0x10, 0x7f, 0x2b, 0xab, 0xd4, 0x27,
  0x6d, 0x45, 0x0a, 0xd0, 0x06, 0x18, 0x23, 0xff, 0x04, 0xb1, 0xd0, 0x43,
  0x6d, 0x64, 0x4a, 0xb2, 0x0d, 0xf2, 0xb4, 0x32, 0xde, 0x1c, 0x56, 0xff,
  0x29, 0xdd, 0x1c, 0x2c, 0x7f, 0x00, 0x0b, 0xf7, 0x0a, 0x56, 0xc3, 0xa0,
  0x03, 0xb0, 0x09, 0x58, 0x06, 0x9f, 0x38, 0x1f, 0x57, 0x56, 0xcf, 0x09,
  0x16, 0x0b, 0x50, 0x16, 0xfa, 0xa0, 0x56, 0xcb, 0xb4, 0x12, 0x2d, 0x23,
  0xe7, 0x19, 0xe5, 0x24, 0xe7, 0x48, 0x49, 0x2c, 0xad, 0xdf, 0x51, 0xe1,
  0x45, 0x60, 0x28, 0x56, 0x4f, 0x76, 0x5a, 0x19, 0xf6, 0x7f, 0x5b, 0xac,
  0x3c, 0x03, 0xb2, 0xc3, 0xe1, 0x1e, 0xe5, 0xd2, 0xe1, 0x39, 0xf2, 0xf6,
  0xbf, 0xef, 0xf2, 0x08, 0xc5, 0xd1, 0x4d, 0xf4, 0x1b, 0x7f, 0x2a, 0x41,
  0x0e, 0x56, 0x29, 0xc8, 0xfc, 0xd0, 0x3e, 0xe0, 0xd1, 0x6c, 0xc3, 0xdc,
  0xa8, 0xb3, 0x64, 0xd5, 0xb2, 0x7f, 0x5a, 0x05, 0xf2, 0xcf, 0x9d, 0x57,
  0xab, 0x05, 0xf7, 0xf0, 0xfb, 0x3e, 0xa7, 0x0f, 0xc5, 0xdf, 0x37, 0x29,
  0x57, 0x05, 0xdf, 0x0e, 0x72, 0xa4, 0x26, 0xc6, 0x48, 0xd4, 0xbc, 0xd6,
  0x29, 0xf5, 0x03, 0x4d, 0xdd, 0x55, 0xfa, 0xf6, 0x4f, 0xc5, 0xe4, 0x70,
  0x25, 0xbc, 0xf6, 0xaa, 0x66, 0x14, 0xfd, 0x11, 0x65, 0x25, 0x2d, 0x7f,
  0xc6, 0x86, 0xed, 0x09, 0xb7, 0xe3, 0xf3, 0xce, 0x2e, 0x38, 0xb5, 0xc6,
  0xfa, 0x69, 0x4d, 0xf3, 0x50, 0x7f, 0xe6, 0xbb, 0x77, 0x0f, 0xa8, 0x5d,
  0xb9, 0x9f, 0xda, 0x75, 0xac, 0x49, 0x27, 0xf6, 0x1e, 0x22, 0x33, 0x7d,
  0x19, 0xe3, 0xca, 0xbf, 0xf6, 0x48, 0x31, 0xe4, 0x10, 0xd7, 0x9e, 0xd5,
  0x07, 0x84, 0xeb, 0x17, 0x2f, 0x9e, 0xf1, 0x47, 0x37, 0x75, 0xcd, 0x3d,
  0xf5, 0x81, 0xa8, 0xeb, 0xa1, 0xf9, 0x3a, 0xa1, 0x2d, 0x23, 0x5c, 0x2e,
  0x18, 0xab, 0xcb, 0x36, 0xa3, 0xad, 0x27, 0xde, 0xee, 0xab, 0xe1, 0x61,
  0xec, 0xaf, 0xc5, 0x04, 0x7f, 0x7e, 0xf6, 0xae, 0x1d, 0x5b, 0x3c, 0xe6,
  0x21, 0x2b, 0x81, 0x5a, 0xe6, 0xfa, 0xaf, 0xb9, 0xbf, 0xbf, 0xb7, 0x81,
  0x4e, 0xea, 0x15, 0x51, 0x3b, 0xc7, 0xe0, 0x62, 0x66, 0xc6, 0x08, 0xad,
  0x1e, 0xe4, 0xce, 0xb7, 0x0c, 0x9e, 0x2a, 0x33, 0x56, 0x98, 0xd4, 0x26,
  0x1c, 0x7f, 0x76, 0x37, 0x92, 0x5d, 0x0b, 0xe6, 0xcf, 0xcc, 0xbc, 0xe5,
  0xac, 0x1d, 0x3c, 0x3a, 0x0f, 0x2b, 0xf6, 0xcd, 0x53, 0xf7, 0xbe, 0x39,
  0x1f, 0x22, 0xb0, 0x69, 0x3c, 0x2e, 0xb1, 0x0a, 0xec, 0xe0, 0xf3, 0x81,
  0xc8, 0xb5, 0x28, 0xdd, 0x04, 0x5f, 0x38, 0x99, 0x4d, 0x57, 0xda, 0x42,
  0x21, 0x22, 0x43, 0xb1, 0xc1, 0x51, 0x99, 0x3a, 0xa2, 0x13, 0x76, 0x25,
  0xbf, 0xee, 0xd8, 0x33, 0xf2, 0xe9, 0xb2, 0xe1, 0x81, 0x14, 0x44, 0x3d,
  0x6b, 0xa2, 0x4d, 0x17, 0x44, 0xd0, 0xbd, 0xf1, 0xff, 0xe0, 0xdb, 0xfd,
  0x99, 0x3f, 0x00, 0x63, 0x43, 0x22, 0x9f, 0xfb, 0x68, 0xb2, 0x15, 0x9e,
  0xb2, 0xfe, 0xff, 0xff, 0x04, 0x00, 0x00, 0x00, 0x40, 0x00, 0x00, 0x00,
  0xcc, 0xfd, 0xff, 0xff, 0xe6, 0xff, 0xff, 0xff, 0x81, 0x05, 0x00, 0x00,
  0xa3, 0x05, 0x00, 0x00, 0x7f, 0x02, 0x00, 0x00, 0xe5, 0xfd, 0xff, 0xff,
  0x91, 0x05, 0x00, 0x00, 0x9c, 0x05, 0x00, 0x00, 0x58, 0x08, 0x00, 0x00,
  0x73, 0xfc, 0xff, 0xff, 0xfe, 0x02, 0x00, 0x00, 0x96, 0xfd, 0xff, 0xff,
  0x3c, 0x01, 0x00, 0x00, 0x81, 0x08, 0x00, 0x00, 0xc9, 0x03, 0x00, 0x00,
  0xee, 0x01, 0x00, 0x00, 0xfe, 0xfe, 0xff, 0xff, 0x04, 0x00, 0x00, 0x00,
  0x40, 0x00, 0x00, 0x00, 0x50, 0x6a, 0xf7, 0x81, 0x60, 0xfe, 0xf3, 0x05,
  0x45, 0xfd, 0xd9, 0x0c, 0x5e, 0xa6, 0x5f, 0x3c, 0xce, 0xd2, 0x59, 0x93,
  0xf0, 0x1e, 0x62, 0x59, 0x5e, 0x92, 0xdc, 0x2b, 0xd8, 0x12, 0x41, 0x7f,
  0xe4, 0x4b, 0xd3, 0x3b, 0x7f, 0x91, 0x0e, 0xb4, 0x41, 0xbe, 0x78, 0x3c,
  0x10, 0x46, 0x32, 0x9d, 0x0f, 0x76, 0x52, 0xd1, 0xf1, 0x58, 0x7f, 0xb5,
  0xe2, 0xf2, 0x05, 0x72, 0xcf, 0xd8, 0xda, 0x58, 0x4a, 0xff, 0xff, 0xff,
  0x04, 0x00, 0x00, 0x00, 0x10, 0x00, 0x00, 0x00, 0xf2, 0xfa, 0xff, 0xff,
  0xba, 0x05, 0x00, 0x00, 0x59, 0x02, 0x00, 0x00, 0xdb, 0xfb, 0xff, 0xff,
  0x34, 0xff, 0xff, 0xff, 0x38, 0xff, 0xff, 0xff, 0x0f, 0x00, 0x00, 0x00,
  0x4d, 0x4c, 0x49, 0x52, 0x20, 0x43, 0x6f, 0x6e, 0x76, 0x65, 0x72, 0x74,
  0x65, 0x64, 0x2e, 0x00, 0x01, 0x00, 0x00, 0x00, 0x14, 0x00, 0x00, 0x00,
  0x00, 0x00, 0x0e, 0x00, 0x18, 0x00, 0x14, 0x00, 0x10, 0x00, 0x0c, 0x00,
  0x08, 0x00, 0x04, 0x00, 0x0e, 0x00, 0x00, 0x00, 0x14, 0x00, 0x00, 0x00,
  0x1c, 0x00, 0x00, 0x00, 0x70, 0x01, 0x00, 0x00, 0x74, 0x01, 0x00, 0x00,
  0x78, 0x01, 0x00, 0x00, 0x04, 0x00, 0x00, 0x00, 0x6d, 0x61, 0x69, 0x6e,
  0x00, 0x00, 0x00, 0x00, 0x05, 0x00, 0x00, 0x00, 0x18, 0x01, 0x00, 0x00,
  0xd0, 0x00, 0x00, 0x00, 0x88, 0x00, 0x00, 0x00, 0x50, 0x00, 0x00, 0x00,
  0x14, 0x00, 0x00, 0x00, 0x00, 0x00, 0x0e, 0x00, 0x1a, 0x00, 0x14, 0x00,
  0x10, 0x00, 0x0c, 0x00, 0x0b, 0x00, 0x04, 0x00, 0x0e, 0x00, 0x00, 0x00,
  0x1c, 0x00, 0x00, 0x00, 0x00, 0x00, 0x00, 0x09, 0x1c, 0x00, 0x00, 0x00,
  0x20, 0x00, 0x00, 0x00, 0x01, 0x00, 0x00, 0x00, 0x00, 0x00, 0x06, 0x00,
  0x08, 0x00, 0x04, 0x00, 0x06, 0x00, 0x00, 0x00, 0x00, 0x00, 0x80, 0x3f,
  0x01, 0x00, 0x00, 0x00, 0x0d, 0x00, 0x00, 0x00, 0x01, 0x00, 0x00, 0x00,
  0x0c, 0x00, 0x00, 0x00, 0x96, 0xff, 0xff, 0xff, 0x14, 0x00, 0x00, 0x00,
  0x00, 0x00, 0x00, 0x08, 0x10, 0x00, 0x00, 0x00, 0x14, 0x00, 0x00, 0x00,
  0x04, 0x00, 0x04, 0x00, 0x04, 0x00, 0x00, 0x00, 0x01, 0x00, 0x00, 0x00,
  0x0c, 0x00, 0x00, 0x00, 0x03, 0x00, 0x00, 0x00, 0x0b, 0x00, 0x00, 0x00,
  0x02, 0x00, 0x00, 0x00, 0x01, 0x00, 0x00, 0x00, 0xca, 0xff, 0xff, 0xff,
  0x10, 0x00, 0x00, 0x00, 0x00, 0x00, 0x00, 0x08, 0x10, 0x00, 0x00, 0x00,
  0x14, 0x00, 0x00, 0x00, 0x76, 0xff, 0xff, 0xff, 0x00, 0x00, 0x00, 0x01,
  0x01, 0x00, 0x00, 0x00, 0x0b, 0x00, 0x00, 0x00, 0x03, 0x00, 0x00, 0x00,
  0x0a, 0x00, 0x00, 0x00, 0x04, 0x00, 0x00, 0x00, 0x03, 0x00, 0x00, 0x00,
  0x00, 0x00, 0x0e, 0x00, 0x14, 0x00, 0x00, 0x00, 0x10, 0x00, 0x0c, 0x00,
  0x0b, 0x00, 0x04, 0x00, 0x0e, 0x00, 0x00, 0x00, 0x10, 0x00, 0x00, 0x00,
  0x00, 0x00, 0x00, 0x08, 0x10, 0x00, 0x00, 0x00, 0x14, 0x00, 0x00, 0x00,
  0xba, 0xff, 0xff, 0xff, 0x00, 0x00, 0x00, 0x01, 0x01, 0x00, 0x00, 0x00,
  0x0a, 0x00, 0x00, 0x00, 0x03, 0x00, 0x00, 0x00, 0x09, 0x00, 0x00, 0x00,
  0x06, 0x00, 0x00, 0x00, 0x05, 0x00, 0x00, 0x00, 0x00, 0x00, 0x0e, 0x00,
  0x16, 0x00, 0x00, 0x00, 0x10, 0x00, 0x0c, 0x00, 0x0b, 0x00, 0x04, 0x00,
  0x0e, 0x00, 0x00, 0x00, 0x18, 0x00, 0x00, 0x00, 0x00, 0x00, 0x00, 0x08,
  0x18, 0x00, 0x00, 0x00, 0x1c, 0x00, 0x00, 0x00, 0x00, 0x00, 0x06, 0x00,
  0x08, 0x00, 0x07, 0x00, 0x06, 0x00, 0x00, 0x00, 0x00, 0x00, 0x00, 0x01,
  0x01, 0x00, 0x00, 0x00, 0x09, 0x00, 0x00, 0x00, 0x03, 0x00, 0x00, 0x00,
  0x00, 0x00, 0x00, 0x00, 0x08, 0x00, 0x00, 0x00, 0x07, 0x00, 0x00, 0x00,
  0x01, 0x00, 0x00, 0x00, 0x0d, 0x00, 0x00, 0x00, 0x01, 0x00, 0x00, 0x00,
  0x00, 0x00, 0x00, 0x00, 0x0e, 0x00, 0x00, 0x00, 0x24, 0x11, 0x00, 0x00,
  0x84, 0x10, 0x00, 0x00, 0xe0, 0x0f, 0x00, 0x00, 0xcc, 0x0e, 0x00, 0x00,
  0xb0, 0x0d, 0x00, 0x00, 0xdc, 0x0b, 0x00, 0x00, 0x00, 0x0a, 0x00, 0x00,
  0xac, 0x06, 0x00, 0x00, 0x50, 0x03, 0x00, 0x00, 0x9c, 0x02, 0x00, 0x00,
  0xe0, 0x01, 0x00, 0x00, 0x24, 0x01, 0x00, 0x00, 0x80, 0x00, 0x00, 0x00,
  0x04, 0x00, 0x00, 0x00, 0x2a, 0xef, 0xff, 0xff, 0x00, 0x00, 0x00, 0x01,
  0x18, 0x00, 0x00, 0x00, 0x20, 0x00, 0x00, 0x00, 0x3c, 0x00, 0x00, 0x00,
  0x0e, 0x00, 0x00, 0x00, 0x00, 0x00, 0x00, 0x09, 0x50, 0x00, 0x00, 0x00,
  0x02, 0x00, 0x00, 0x00, 0xff, 0xff, 0xff, 0xff, 0x04, 0x00, 0x00, 0x00,
  0x14, 0xef, 0xff, 0xff, 0x08, 0x00, 0x00, 0x00, 0x10, 0x00, 0x00, 0x00,
  0x01, 0x00, 0x00, 0x00, 0x80, 0xff, 0xff, 0xff, 0xff, 0xff, 0xff, 0xff,
  0x01, 0x00, 0x00, 0x00, 0x00, 0x00, 0x80, 0x3b, 0x1b, 0x00, 0x00, 0x00,
  0x53, 0x74, 0x61, 0x74, 0x65, 0x66, 0x75, 0x6c, 0x50, 0x61, 0x72, 0x74,
  0x69, 0x74, 0x69, 0x6f, 0x6e, 0x65, 0x64, 0x43, 0x61, 0x6c, 0x6c, 0x5f,
  0x31, 0x3a, 0x30, 0x00, 0x02, 0x00, 0x00, 0x00, 0x01, 0x00, 0x00, 0x00,
  0x04, 0x00, 0x00, 0x00, 0xa2, 0xef, 0xff, 0xff, 0x00, 0x00, 0x00, 0x01,
  0x18, 0x00, 0x00, 0x00, 0x20, 0x00, 0x00, 0x00, 0x40, 0x00, 0x00, 0x00,
  0x0d, 0x00, 0x00, 0x00, 0x00, 0x00, 0x00, 0x09, 0x78, 0x00, 0x00, 0x00,
  0x02, 0x00, 0x00, 0x00, 0xff, 0xff, 0xff, 0xff, 0x04, 0x00, 0x00, 0x00,
  0x8c, 0xef, 0xff, 0xff, 0x08, 0x00, 0x00, 0x00, 0x14, 0x00, 0x00, 0x00,
  0x01, 0x00, 0x00, 0x00, 0xeb, 0xff, 0xff, 0xff, 0xff, 0xff, 0xff, 0xff,
  0x00, 0x00, 0x00, 0x00, 0x01, 0x00, 0x00, 0x00, 0xc7, 0xf9, 0xf4, 0x3c,
  0x3c, 0x00, 0x00, 0x00, 0x73, 0x65, 0x71, 0x75, 0x65, 0x6e, 0x74, 0x69,
  0x61, 0x6c, 0x5f, 0x31, 0x2f, 0x64, 0x65, 0x6e, 0x73, 0x65, 0x5f, 0x33,
  0x5f, 0x31, 0x2f, 0x4d, 0x61, 0x74, 0x4d, 0x75, 0x6c, 0x3b, 0x73, 0x65,
  0x71, 0x75, 0x65, 0x6e, 0x74, 0x69, 0x61, 0x6c, 0x5f, 0x31, 0x2f, 0x64,
  0x65, 0x6e, 0x73, 0x65, 0x5f, 0x33, 0x5f, 0x31, 0x2f, 0x42, 0x69, 0x61,
  0x73, 0x41, 0x64, 0x64, 0x00, 0x00, 0x00, 0x00, 0x02, 0x00, 0x00, 0x00,
  0x01, 0x00, 0x00, 0x00, 0x04, 0x00, 0x00, 0x00, 0x42, 0xf0, 0xff, 0xff,
  0x00, 0x00, 0x00, 0x01, 0x18, 0x00, 0x00, 0x00, 0x20, 0x00, 0x00, 0x00,
  0x3c, 0x00, 0x00, 0x00, 0x0c, 0x00, 0x00, 0x00, 0x00, 0x00, 0x00, 0x09,
  0x90, 0x00, 0x00, 0x00, 0x02, 0x00, 0x00, 0x00, 0xff, 0xff, 0xff, 0xff,
  0x10, 0x00, 0x00, 0x00, 0x2c, 0xf0, 0xff, 0xff, 0x08, 0x00, 0x00, 0x00,
  0x10, 0x00, 0x00, 0x00, 0x01, 0x00, 0x00, 0x00, 0x80, 0xff, 0xff, 0xff,
  0xff, 0xff, 0xff, 0xff, 0x01, 0x00, 0x00, 0x00, 0xc7, 0xa7, 0xa3, 0x3c,
  0x58, 0x00, 0x00, 0x00, 0x73, 0x65, 0x71, 0x75, 0x65, 0x6e, 0x74, 0x69,
  0x61, 0x6c, 0x5f, 0x31, 0x2f, 0x64, 0x65, 0x6e, 0x73, 0x65, 0x5f, 0x32,
  0x5f, 0x31, 0x2f, 0x4d, 0x61, 0x74, 0x4d, 0x75, 0x6c, 0x3b, 0x73, 0x65,
  0x71, 0x75, 0x65, 0x6e, 0x74, 0x69, 0x61, 0x6c, 0x5f, 0x31, 0x2f, 0x64,
  0x65, 0x6e, 0x73, 0x65, 0x5f, 0x32, 0x5f, 0x31, 0x2f, 0x52, 0x65, 0x6c,
  0x75, 0x3b, 0x73, 0x65, 0x71, 0x75, 0x65, 0x6e, 0x74, 0x69, 0x61, 0x6c,
  0x5f, 0x31, 0x2f, 0x64, 0x65, 0x6e, 0x73, 0x65, 0x5f, 0x32, 0x5f, 0x31,
  0x2f, 0x42, 0x69, 0x61, 0x73, 0x41, 0x64, 0x64, 0x00, 0x00, 0x00, 0x00,
  0x02, 0x00, 0x00, 0x00, 0x01, 0x00, 0x00, 0x00, 0x10, 0x00, 0x00, 0x00,
  0xfa, 0xf0, 0xff, 0xff, 0x00, 0x00, 0x00, 0x01, 0x18, 0x00, 0x00, 0x00,
  0x20, 0x00, 0x00, 0x00, 0x3c, 0x00, 0x00, 0x00, 0x0b, 0x00, 0x00, 0x00,
  0x00, 0x00, 0x00, 0x09, 0x90, 0x00, 0x00, 0x00, 0x02, 0x00, 0x00, 0x00,
  0xff, 0xff, 0xff, 0xff, 0x20, 0x00, 0x00, 0x00, 0xe4, 0xf0, 0xff, 0xff,
  0x08, 0x00, 0x00, 0x00, 0x10, 0x00, 0x00, 0x00, 0x01, 0x00, 0x00, 0x00,
  0x80, 0xff, 0xff, 0xff, 0xff, 0xff, 0xff, 0xff, 0x01, 0x00, 0x00, 0x00,
  0x21, 0xe9, 0x98, 0x3c, 0x58, 0x00, 0x00, 0x00, 0x73, 0x65, 0x71, 0x75,
  0x65, 0x6e, 0x74, 0x69, 0x61, 0x6c, 0x5f, 0x31, 0x2f, 0x64, 0x65, 0x6e,
  0x73, 0x65, 0x5f, 0x31, 0x5f, 0x32, 0x2f, 0x4d, 0x61, 0x74, 0x4d, 0x75,
  0x6c, 0x3b, 0x73, 0x65, 0x71, 0x75, 0x65, 0x6e, 0x74, 0x69, 0x61, 0x6c,
  0x5f, 0x31, 0x2f, 0x64, 0x65, 0x6e, 0x73, 0x65, 0x5f, 0x31, 0x5f, 0x32,
  0x2f, 0x52, 0x65, 0x6c, 0x75, 0x3b, 0x73, 0x65, 0x71, 0x75, 0x65, 0x6e,
  0x74, 0x69, 0x61, 0x6c, 0x5f, 0x31, 0x2f, 0x64, 0x65, 0x6e, 0x73, 0x65,
  0x5f, 0x31, 0x5f, 0x32, 0x2f, 0x42, 0x69, 0x61, 0x73, 0x41, 0x64, 0x64,
  0x00, 0x00, 0x00, 0x00, 0x02, 0x00, 0x00, 0x00, 0x01, 0x00, 0x00, 0x00,
  0x20, 0x00, 0x00, 0x00, 0xb2, 0xf1, 0xff, 0xff, 0x00, 0x00, 0x00, 0x01,
  0x18, 0x00, 0x00, 0x00, 0x20, 0x00, 0x00, 0x00, 0x3c, 0x00, 0x00, 0x00,
  0x0a, 0x00, 0x00, 0x00, 0x00, 0x00, 0x00, 0x09, 0x88, 0x00, 0x00, 0x00,
  0x02, 0x00, 0x00, 0x00, 0xff, 0xff, 0xff, 0xff, 0x40, 0x00, 0x00, 0x00,
  0x9c, 0xf1, 0xff, 0xff, 0x08, 0x00, 0x00, 0x00, 0x10, 0x00, 0x00, 0x00,
  0x01, 0x00, 0x00, 0x00, 0x80, 0xff, 0xff, 0xff, 0xff, 0xff, 0xff, 0xff,
  0x01, 0x00, 0x00, 0x00, 0xaf, 0xc8, 0x87, 0x3c, 0x52, 0x00, 0x00, 0x00,
  0x73, 0x65, 0x71, 0x75, 0x65, 0x6e, 0x74, 0x69, 0x61, 0x6c, 0x5f, 0x31,
  0x2f, 0x64, 0x65, 0x6e, 0x73, 0x65, 0x5f, 0x31, 0x2f, 0x4d, 0x61, 0x74,
  0x4d, 0x75, 0x6c, 0x3b, 0x73, 0x65, 0x71, 0x75, 0x65, 0x6e, 0x74, 0x69,
  0x61, 0x6c, 0x5f, 0x31, 0x2f, 0x64, 0x65, 0x6e, 0x73, 0x65, 0x5f, 0x31,
  0x2f, 0x52, 0x65, 0x6c, 0x75, 0x3b, 0x73, 0x65, 0x71, 0x75, 0x65, 0x6e,
  0x74, 0x69, 0x61, 0x6c, 0x5f, 0x31, 0x2f, 0x64, 0x65, 0x6e, 0x73, 0x65,
  0x5f, 0x31, 0x2f, 0x42, 0x69, 0x61, 0x73, 0x41, 0x64, 0x64, 0x00, 0x00,
  0x02, 0x00, 0x00, 0x00, 0x01, 0x00, 0x00, 0x00, 0x40, 0x00, 0x00, 0x00,
  0xfe, 0xf2, 0xff, 0xff, 0x00, 0x00, 0x00, 0x01, 0x14, 0x00, 0x00, 0x00,
  0x28, 0x03, 0x00, 0x00, 0x09, 0x00, 0x00, 0x00, 0x00, 0x00, 0x00, 0x09,
  0x34, 0x03, 0x00, 0x00, 0x3c, 0xf2, 0xff, 0xff, 0x08, 0x00, 0x00, 0x00,
  0x0c, 0x02, 0x00, 0x00, 0x40, 0x00, 0x00, 0x00, 0x00, 0x00, 0x00, 0x00,
  0x00, 0x00, 0x00, 0x00, 0x00, 0x00, 0x00, 0x00, 0x00, 0x00, 0x00, 0x00,
  0x00, 0x00, 0x00, 0x00, 0x00, 0x00, 0x00, 0x00, 0x00, 0x00, 0x00, 0x00,
  0x00, 0x00, 0x00, 0x00, 0x00, 0x00, 0x00, 0x00, 0x00, 0x00, 0x00, 0x00,
  0x00, 0x00, 0x00, 0x00, 0x00, 0x00, 0x00, 0x00, 0x00, 0x00, 0x00, 0x00,
  0x00, 0x00, 0x00, 0x00, 0x00, 0x00, 0x00, 0x00, 0x00, 0x00, 0x00, 0x00,
  0x00, 0x00, 0x00, 0x00, 0x00, 0x00, 0x00, 0x00, 0x00, 0x00, 0x00, 0x00,
  0x00, 0x00, 0x00, 0x00, 0x00, 0x00, 0x00, 0x00, 0x00, 0x00, 0x00, 0x00,
  0x00, 0x00, 0x00, 0x00, 0x00, 0x00, 0x00, 0x00, 0x00, 0x00, 0x00, 0x00,
  0x00, 0x00, 0x00, 0x00, 0x00, 0x00, 0x00, 0x00, 0x00, 0x00, 0x00, 0x00,
  0x00, 0x00, 0x00, 0x00, 0x00, 0x00, 0x00, 0x00, 0x00, 0x00, 0x00, 0x00,
  0x00, 0x00, 0x00, 0x00, 0x00, 0x00, 0x00, 0x00, 0x00, 0x00, 0x00, 0x00,
  0x00, 0x00, 0x00, 0x00, 0x00, 0x00, 0x00, 0x00, 0x00, 0x00, 0x00, 0x00,
  0x00, 0x00, 0x00, 0x00, 0x00, 0x00, 0x00, 0x00, 0x00, 0x00, 0x00, 0x00,
  0x00, 0x00, 0x00, 0x00, 0x00, 0x00, 0x00, 0x00, 0x00, 0x00, 0x00, 0x00,
  0x00, 0x00, 0x00, 0x00, 0x00, 0x00, 0x00, 0x00, 0x00, 0x00, 0x00, 0x00,
  0x00, 0x00, 0x00, 0x00, 0x00, 0x00, 0x00, 0x00, 0x00, 0x00, 0x00, 0x00,
  0x00, 0x00, 0x00, 0x00, 0x00, 0x00, 0x00, 0x00, 0x00, 0x00, 0x00, 0x00,
  0x00, 0x00, 0x00, 0x00, 0x00, 0x00, 0x00, 0x00, 0x00, 0x00, 0x00, 0x00,
  0x00, 0x00, 0x00, 0x00, 0x00, 0x00, 0x00, 0x00, 0x00, 0x00, 0x00, 0x00,
  0x00, 0x00, 0x00, 0x00, 0x00, 0x00, 0x00, 0x00, 0x00, 0x00, 0x00, 0x00,
  0x00, 0x00, 0x00, 0x00, 0x00, 0x00, 0x00, 0x00, 0x00, 0x00, 0x00, 0x00,
  0x00, 0x00, 0x00, 0x00, 0x00, 0x00, 0x00, 0x00, 0x00, 0x00, 0x00, 0x00,
  0x00, 0x00, 0x00, 0x00, 0x00, 0x00, 0x00, 0x00, 0x00, 0x00, 0x00, 0x00,
  0x00, 0x00, 0x00, 0x00, 0x00, 0x00, 0x00, 0x00, 0x00, 0x00, 0x00, 0x00,
  0x00, 0x00, 0x00, 0x00, 0x00, 0x00, 0x00, 0x00, 0x00, 0x00, 0x00, 0x00,
  0x00, 0x00, 0x00, 0x00, 0x00, 0x00, 0x00, 0x00, 0x00, 0x00, 0x00, 0x00,
  0x00, 0x00, 0x00, 0x00, 0x00, 0x00, 0x00, 0x00, 0x00, 0x00, 0x00, 0x00,
  0x00, 0x00, 0x00, 0x00, 0x00, 0x00, 0x00, 0x00, 0x00, 0x00, 0x00, 0x00,
  0x00, 0x00, 0x00, 0x00, 0x00, 0x00, 0x00, 0x00, 0x00, 0x00, 0x00, 0x00,
  0x00, 0x00, 0x00, 0x00, 0x00, 0x00, 0x00, 0x00, 0x00, 0x00, 0x00, 0x00,
  0x00, 0x00, 0x00, 0x00, 0x00, 0x00, 0x00, 0x00, 0x00, 0x00, 0x00, 0x00,
  0x00, 0x00, 0x00, 0x00, 0x00, 0x00, 0x00, 0x00, 0x00, 0x00, 0x00, 0x00,
  0x00, 0x00, 0x00, 0x00, 0x00, 0x00, 0x00, 0x00, 0x00, 0x00, 0x00, 0x00,
  0x00, 0x00, 0x00, 0x00, 0x00, 0x00, 0x00, 0x00, 0x00, 0x00, 0x00, 0x00,
  0x00, 0x00, 0x00, 0x00, 0x00, 0x00, 0x00, 0x00, 0x00, 0x00, 0x00, 0x00,
  0x00, 0x00, 0x00, 0x00, 0x00, 0x00, 0x00, 0x00, 0x00, 0x00, 0x00, 0x00,
  0x00, 0x00, 0x00, 0x00, 0x00, 0x00, 0x00, 0x00, 0x00, 0x00, 0x00, 0x00,
  0x00, 0x00, 0x00, 0x00, 0x00, 0x00, 0x00, 0x00, 0x00, 0x00, 0x00, 0x00,
  0x00, 0x00, 0x00, 0x00, 0x00, 0x00, 0x00, 0x00, 0x00, 0x00, 0x00, 0x00,
  0x00, 0x00, 0x00, 0x00, 0x00, 0x00, 0x00, 0x00, 0x00, 0x00, 0x00, 0x00,
  0x00, 0x00, 0x00, 0x00, 0x00, 0x00, 0x00, 0x00, 0x00, 0x00, 0x00, 0x00,
  0x00, 0x00, 0x00, 0x00, 0x00, 0x00, 0x00, 0x00, 0x00, 0x00, 0x00, 0x00,
  0x00, 0x00, 0x00, 0x00, 0x00, 0x00, 0x00, 0x00, 0x40, 0x00, 0x00, 0x00,
  0x41, 0xa7, 0x0c, 0x3b, 0x36, 0x80, 0x0e, 0x3b, 0x71, 0x3b, 0x03, 0x3b,
  0x5c, 0xd9, 0x2a, 0x3b, 0xb6, 0x05, 0x5b, 0x3b, 0xe9, 0x8a, 0x11, 0x3b,
  0x2c, 0x57, 0x22, 0x3b, 0x1d, 0x9e, 0x31, 0x3b, 0x62, 0xc1, 0x34, 0x3b,
  0xea, 0xc7, 0x15, 0x3b, 0xc9, 0x9e, 0x19, 0x3b, 0xba, 0x22, 0x27, 0x3b,
  0xe2, 0x9b, 0x1c, 0x3b, 0x23, 0xaa, 0x14, 0x3b, 0x33, 0xee, 0x01, 0x3b,
  0xcc, 0xb8, 0x34, 0x3b, 0x4d, 0x36, 0x1f, 0x3b, 0x10, 0xf9, 0x28, 0x3b,
  0xa1, 0xc4, 0x24, 0x3b, 0x53, 0xdd, 0x07, 0x3b, 0x36, 0x1e, 0x15, 0x3b,
  0xff, 0xda, 0x1b, 0x3b, 0xa3, 0x59, 0x14, 0x3b, 0xc8, 0x63, 0x25, 0x3b,
  0x02, 0x11, 0x3a, 0x3b, 0xb7, 0xae, 0x11, 0x3b, 0xed, 0x1c, 0x0a, 0x3b,
  0x98, 0x79, 0x11, 0x3b, 0x9a, 0x59, 0x03, 0x3b, 0x1d, 0xa3, 0x13, 0x3b,
  0xbe, 0xfd, 0x05, 0x3b, 0xe2, 0x57, 0x50, 0x3b, 0x3c, 0x7f, 0x12, 0x3b,
  0xa0, 0xd1, 0x21, 0x3b, 0xcc, 0x8b, 0x1c, 0x3b, 0x9e, 0x6e, 0x57, 0x3b,
  0x6e, 0x3a, 0x12, 0x3b, 0xaf, 0x7d, 0x16, 0x3b, 0x4f, 0x10, 0xef, 0x3a,
  0xa2, 0x8f, 0x19, 0x3b, 0xf7, 0xb5, 0x19, 0x3b, 0x18, 0x18, 0x20, 0x3b,
  0x37, 0xe6, 0x25, 0x3b, 0x39, 0x44, 0x09, 0x3b, 0xb3, 0x0b, 0x4d, 0x3b,
  0xbc, 0x08, 0x3e, 0x3b, 0x35, 0x7a, 0x13, 0x3b, 0x5c, 0x0e, 0x29, 0x3b,
  0xa2, 0xc0, 0x02, 0x3b, 0xaa, 0xd9, 0x16, 0x3b, 0x64, 0xf0, 0x12, 0x3b,
  0x45, 0x36, 0x0a, 0x3b, 0xf3, 0xcd, 0x34, 0x3b, 0x27, 0x99, 0x08, 0x3b,
  0x99, 0x2f, 0x29, 0x3b, 0xb6, 0xa2, 0x3e, 0x3b, 0x6f, 0x4a, 0x15, 0x3b,
  0xd6, 0xcf, 0x1b, 0x3b, 0x3d, 0xf4, 0x2c, 0x3b, 0xf4, 0x95, 0x35, 0x3b,
  0xa2, 0x40, 0x07, 0x3b, 0x84, 0x3a, 0x00, 0x3b, 0x19, 0xcd, 0x05, 0x3b,
  0x0e, 0xa2, 0x2a, 0x3b, 0x12, 0x00, 0x00, 0x00, 0x74, 0x66, 0x6c, 0x2e,
  0x70, 0x73, 0x65, 0x75, 0x64, 0x6f, 0x5f, 0x71, 0x63, 0x6f, 0x6e, 0x73,
  0x74, 0x37, 0x00, 0x00, 0x02, 0x00, 0x00, 0x00, 0x40, 0x00, 0x00, 0x00,
  0x1c, 0x00, 0x00, 0x00, 0x56, 0xf6, 0xff, 0xff, 0x00, 0x00, 0x00, 0x01,
  0x14, 0x00, 0x00, 0x00, 0x24, 0x03, 0x00, 0x00, 0x08, 0x00, 0x00, 0x00,
  0x00, 0x00, 0x00, 0x02, 0x30, 0x03, 0x00, 0x00, 0x94, 0xf5, 0xff, 0xff,
  0x08, 0x00, 0x00, 0x00, 0x08, 0x02, 0x00, 0x00, 0x40, 0x00, 0x00, 0x00,
  0x00, 0x00, 0x00, 0x00, 0x00, 0x00, 0x00, 0x00, 0x00, 0x00, 0x00, 0x00,
  0x00, 0x00, 0x00, 0x00, 0x00, 0x00, 0x00, 0x00, 0x00, 0x00, 0x00, 0x00,
  0x00, 0x00, 0x00, 0x00, 0x00, 0x00, 0x00, 0x00, 0x00, 0x00, 0x00, 0x00,
  0x00, 0x00, 0x00, 0x00, 0x00, 0x00, 0x00, 0x00, 0x00, 0x00, 0x00, 0x00,
  0x00, 0x00, 0x00, 0x00, 0x00, 0x00, 0x00, 0x00, 0x00, 0x00, 0x00, 0x00,
  0x00, 0x00, 0x00, 0x00, 0x00, 0x00, 0x00, 0x00, 0x00, 0x00, 0x00, 0x00,
  0x00, 0x00, 0x00, 0x00, 0x00, 0x00, 0x00, 0x00, 0x00, 0x00, 0x00, 0x00,
  0x00, 0x00, 0x00, 0x00, 0x00, 0x00, 0x00, 0x00, 0x00, 0x00, 0x00, 0x00,
  0x00, 0x00, 0x00, 0x00, 0x00, 0x00, 0x00, 0x00, 0x00, 0x00, 0x00, 0x00,
  0x00, 0x00, 0x00, 0x00, 0x00, 0x00, 0x00, 0x00, 0x00, 0x00, 0x00, 0x00,
  0x00, 0x00, 0x00, 0x00, 0x00, 0x00, 0x00, 0x00, 0x00, 0x00, 0x00, 0x00,
  0x00, 0x00, 0x00, 0x00, 0x00, 0x00, 0x00, 0x00, 0x00, 0x00, 0x00, 0x00,
  0x00, 0x00, 0x00, 0x00, 0x00, 0x00, 0x00, 0x00, 0x00, 0x00, 0x00, 0x00,
  0x00, 0x00, 0x00, 0x00, 0x00, 0x00, 0x00, 0x00, 0x00, 0x00, 0x00, 0x00,
  0x00, 0x00, 0x00, 0x00, 0x00, 0x00, 0x00, 0x00, 0x00, 0x00, 0x00, 0x00,
  0x00, 0x00, 0x00, 0x00, 0x00, 0x00, 0x00, 0x00, 0x00, 0x00, 0x00, 0x00,
  0x00, 0x00, 0x00, 0x00, 0x00, 0x00, 0x00, 0x00, 0x00, 0x00, 0x00, 0x00,
  0x00, 0x00, 0x00, 0x00, 0x00, 0x00, 0x00, 0x00, 0x00, 0x00, 0x00, 0x00,
  0x00, 0x00, 0x00, 0x00, 0x00, 0x00, 0x00, 0x00, 0x00, 0x00, 0x00, 0x00,
  0x00, 0x00, 0x00, 0x00, 0x00, 0x00, 0x00, 0x00, 0x00, 0x00, 0x00, 0x00,
  0x00, 0x00, 0x00, 0x00, 0x00, 0x00, 0x00, 0x00, 0x00, 0x00, 0x00, 0x00,
  0x00, 0x00, 0x00, 0x00, 0x00, 0x00, 0x00, 0x00, 0x00, 0x00, 0x00, 0x00,
  0x00, 0x00, 0x00, 0x00, 0x00, 0x00, 0x00, 0x00, 0x00, 0x00, 0x00, 0x00,
  0x00, 0x00, 0x00, 0x00, 0x00, 0x00, 0x00, 0x00, 0x00, 0x00, 0x00, 0x00,
  0x00, 0x00, 0x00, 0x00, 0x00, 0x00, 0x00, 0x00, 0x00, 0x00, 0x00, 0x00,
  0x00, 0x00, 0x00, 0x00, 0x00, 0x00, 0x00, 0x00, 0x00, 0x00, 0x00, 0x00,
  0x00, 0x00, 0x00, 0x00, 0x00, 0x00, 0x00, 0x00, 0x00, 0x00, 0x00, 0x00,
  0x00, 0x00, 0x00, 0x00, 0x00, 0x00, 0x00, 0x00, 0x00, 0x00, 0x00, 0x00,
  0x00, 0x00, 0x00, 0x00, 0x00, 0x00, 0x00, 0x00, 0x00, 0x00, 0x00, 0x00,
  0x00, 0x00, 0x00, 0x00, 0x00, 0x00, 0x00, 0x00, 0x00, 0x00, 0x00, 0x00,
  0x00, 0x00, 0x00, 0x00, 0x00, 0x00, 0x00, 0x00, 0x00, 0x00, 0x00, 0x00,
  0x00, 0x00, 0x00, 0x00, 0x00, 0x00, 0x00, 0x00, 0x00, 0x00, 0x00, 0x00,
  0x00, 0x00, 0x00, 0x00, 0x00, 0x00, 0x00, 0x00, 0x00, 0x00, 0x00, 0x00,
  0x00, 0x00, 0x00, 0x00, 0x00, 0x00, 0x00, 0x00, 0x00, 0x00, 0x00, 0x00,
  0x00, 0x00, 0x00, 0x00, 0x00, 0x00, 0x00, 0x00, 0x00, 0x00, 0x00, 0x00,
  0x00, 0x00, 0x00, 0x00, 0x00, 0x00, 0x00, 0x00, 0x00, 0x00, 0x00, 0x00,
  0x00, 0x00, 0x00, 0x00, 0x00, 0x00, 0x00, 0x00, 0x00, 0x00, 0x00, 0x00,
  0x00, 0x00, 0x00, 0x00, 0x00, 0x00, 0x00, 0x00, 0x00, 0x00, 0x00, 0x00,
  0x00, 0x00, 0x00, 0x00, 0x00, 0x00, 0x00, 0x00, 0x00, 0x00, 0x00, 0x00,
  0x00, 0x00, 0x00, 0x00, 0x00, 0x00, 0x00, 0x00, 0x00, 0x00, 0x00, 0x00,
  0x00, 0x00, 0x00, 0x00, 0x00, 0x00, 0x00, 0x00, 0x00, 0x00, 0x00, 0x00,
  0x00, 0x00, 0x00, 0x00, 0x00, 0x00, 0x00, 0x00, 0x00, 0x00, 0x00, 0x00,
  0x00, 0x00, 0x00, 0x00, 0x00, 0x00, 0x00, 0x00, 0x40, 0x00, 0x00, 0x00,
  0xec, 0xa7, 0xab, 0x38, 0x21, 0xe9, 0xad, 0x38, 0x80, 0x28, 0xa0, 0x38,
  0xe3, 0x81, 0xd0, 0x38, 0x42, 0xa6, 0x05, 0x39, 0x77, 0x9f, 0xb1, 0x38,
  0x96, 0x1f, 0xc6, 0x38, 0x92, 0xc4, 0xd8, 0x38, 0xe5, 0x98, 0xdc, 0x38,
  0xa0, 0xcb, 0xb6, 0x38, 0x24, 0x7b, 0xbb, 0x38, 0xb7, 0xf9, 0xcb, 0x38,
  0xe1, 0x20, 0xbf, 0x38, 0xdb, 0x6e, 0xb5, 0x38, 0xce, 0x91, 0x9e, 0x38,
  0x6b, 0x8e, 0xdc, 0x38, 0x30, 0x4e, 0xc2, 0x38, 0xb9, 0x37, 0xce, 0x38,
  0x06, 0x16, 0xc9, 0x38, 0xc6, 0xcf, 0xa5, 0x38, 0x84, 0xfc, 0xb5, 0x38,
  0x7a, 0x35, 0xbe, 0x38, 0x9d, 0x0c, 0xb5, 0x38, 0x41, 0xd8, 0xc9, 0x38,
  0x35, 0x14, 0xe3, 0x38, 0x2a, 0xcb, 0xb1, 0x38, 0x40, 0x8e, 0xa8, 0x38,
  0x55, 0x8a, 0xb1, 0x38, 0x4f, 0x4d, 0xa0, 0x38, 0xdc, 0x2d, 0xb4, 0x38,
  0x7c, 0x86, 0xa3, 0x38, 0x1a, 0x44, 0xfe, 0x38, 0xa5, 0xc9, 0xb2, 0x38,
  0x9a, 0x7c, 0xc5, 0x38, 0x3f, 0x0d, 0xbf, 0x38, 0x6b, 0x75, 0x03, 0x39,
  0xac, 0x75, 0xb2, 0x38, 0x76, 0xa9, 0xb7, 0x38, 0xff, 0xe0, 0x91, 0x38,
  0xa6, 0x68, 0xbb, 0x38, 0x6e, 0x97, 0xbb, 0x38, 0xc0, 0x61, 0xc3, 0x38,
  0x70, 0x77, 0xca, 0x38, 0xc8, 0x85, 0xa7, 0x38, 0xd8, 0x3d, 0xfa, 0x38,
  0xd2, 0xeb, 0xe7, 0x38, 0xef, 0xfb, 0xb3, 0x38, 0xb7, 0x51, 0xce, 0x38,
  0x9f, 0x92, 0x9f, 0x38, 0xb7, 0x19, 0xb8, 0x38, 0xbe, 0x53, 0xb3, 0x38,
  0x2e, 0xad, 0xa8, 0x38, 0x3b, 0xa8, 0xdc, 0x38, 0x01, 0xb5, 0xa6, 0x38,
  0x47, 0x7a, 0xce, 0x38, 0xbc, 0xa7, 0xe8, 0x38, 0x7c, 0x32, 0xb6, 0x38,
  0xdb, 0x27, 0xbe, 0x38, 0x8b, 0x13, 0xd3, 0x38, 0x52, 0x9c, 0xdd, 0x38,
  0x8c, 0x10, 0xa5, 0x38, 0x17, 0x7e, 0x9c, 0x38, 0x1e, 0x4b, 0xa3, 0x38,
  0x64, 0x3e, 0xd0, 0x38, 0x12, 0x00, 0x00, 0x00, 0x74, 0x66, 0x6c, 0x2e,
  0x70, 0x73, 0x65, 0x75, 0x64, 0x6f, 0x5f, 0x71, 0x63, 0x6f, 0x6e, 0x73,
  0x74, 0x36, 0x00, 0x00, 0x01, 0x00, 0x00, 0x00, 0x40, 0x00, 0x00, 0x00,
  0xa6, 0xf9, 0xff, 0xff, 0x00, 0x00, 0x00, 0x01, 0x14, 0x00, 0x00, 0x00,
  0xa8, 0x01, 0x00, 0x00, 0x07, 0x00, 0x00, 0x00, 0x00, 0x00, 0x00, 0x09,
  0xb4, 0x01, 0x00, 0x00, 0xe4, 0xf8, 0xff, 0xff, 0x08, 0x00, 0x00, 0x00,
  0x0c, 0x01, 0x00, 0x00, 0x20, 0x00, 0x00, 0x00, 0x00, 0x00, 0x00, 0x00,
  0x00, 0x00, 0x00, 0x00, 0x00, 0x00, 0x00, 0x00, 0x00, 0x00, 0x00, 0x00,
  0x00, 0x00, 0x00, 0x00, 0x00, 0x00, 0x00, 0x00, 0x00, 0x00, 0x00, 0x00,
  0x00, 0x00, 0x00, 0x00, 0x00, 0x00, 0x00, 0x00, 0x00, 0x00, 0x00, 0x00,
  0x00, 0x00, 0x00, 0x00, 0x00, 0x00, 0x00, 0x00, 0x00, 0x00, 0x00, 0x00,
  0x00, 0x00, 0x00, 0x00, 0x00, 0x00, 0x00, 0x00, 0x00, 0x00, 0x00, 0x00,
  0x00, 0x00, 0x00, 0x00, 0x00, 0x00, 0x00, 0x00, 0x00, 0x00, 0x00, 0x00,
  0x00, 0x00, 0x00, 0x00, 0x00, 0x00, 0x00, 0x00, 0x00, 0x00, 0x00, 0x00,
  0x00, 0x00, 0x00, 0x00, 0x00, 0x00, 0x00, 0x00, 0x00, 0x00, 0x00, 0x00,
  0x00, 0x00, 0x00, 0x00, 0x00, 0x00, 0x00, 0x00, 0x00, 0x00, 0x00, 0x00,
  0x00, 0x00, 0x00, 0x00, 0x00, 0x00, 0x00, 0x00, 0x00, 0x00, 0x00, 0x00,
  0x00, 0x00, 0x00, 0x00, 0x00, 0x00, 0x00, 0x00, 0x00, 0x00, 0x00, 0x00,
  0x00, 0x00, 0x00, 0x00, 0x00, 0x00, 0x00, 0x00, 0x00, 0x00, 0x00, 0x00,
  0x00, 0x00, 0x00, 0x00, 0x00, 0x00, 0x00, 0x00, 0x00, 0x00, 0x00, 0x00,
  0x00, 0x00, 0x00, 0x00, 0x00, 0x00, 0x00, 0x00, 0x00, 0x00, 0x00, 0x00,
  0x00, 0x00, 0x00, 0x00, 0x00, 0x00, 0x00, 0x00, 0x00, 0x00, 0x00, 0x00,
  0x00, 0x00, 0x00, 0x00, 0x00, 0x00, 0x00, 0x00, 0x00, 0x00, 0x00, 0x00,
  0x00, 0x00, 0x00, 0x00, 0x00, 0x00, 0x00, 0x00, 0x00, 0x00, 0x00, 0x00,
  0x00, 0x00, 0x00, 0x00, 0x00, 0x00, 0x00, 0x00, 0x00, 0x00, 0x00, 0x00,
  0x00, 0x00, 0x00, 0x00, 0x00, 0x00, 0x00, 0x00, 0x00, 0x00, 0x00, 0x00,
  0x00, 0x00, 0x00, 0x00, 0x00, 0x00, 0x00, 0x00, 0x00, 0x00, 0x00, 0x00,
  0x00, 0x00, 0x00, 0x00, 0x00, 0x00, 0x00, 0x00, 0x00, 0x00, 0x00, 0x00,
  0x00, 0x00, 0x00, 0x00, 0x20, 0x00, 0x00, 0x00, 0x63, 0x94, 0x26, 0x3b,
  0xc5, 0xb0, 0x2e, 0x3b, 0x1a, 0x11, 0x32, 0x3b, 0x34, 0x20, 0x2e, 0x3b,
  0xe6, 0x58, 0x32, 0x3b, 0x34, 0xb8, 0x23, 0x3b, 0x2b, 0x3b, 0x1f, 0x3b,
  0x1d, 0x17, 0x14, 0x3b, 0xcc, 0xf6, 0x48, 0x3b, 0x5f, 0xf7, 0x1c, 0x3b,
  0x4d, 0x94, 0x20, 0x3b, 0xcd, 0xa0, 0x14, 0x3b, 0xed, 0xba, 0x36, 0x3b,
  0x37, 0xd2, 0x20, 0x3b, 0x4f, 0x8e, 0x44, 0x3b, 0xc3, 0x06, 0x3c, 0x3b,
  0x90, 0x60, 0x12, 0x3b, 0x03, 0xdf, 0x32, 0x3b, 0x9e, 0xe4, 0x21, 0x3b,
  0xe8, 0x47, 0x09, 0x3b, 0x35, 0xb4, 0x10, 0x3b, 0x13, 0x03, 0x10, 0x3b,
  0x18, 0x4f, 0x0f, 0x3b, 0xb8, 0x0d, 0x20, 0x3b, 0x9d, 0x86, 0x39, 0x3b,
  0xe8, 0x6d, 0x12, 0x3b, 0x0f, 0x6d, 0x21, 0x3b, 0xfa, 0xc7, 0x2e, 0x3b,
  0xad, 0x4c, 0x0b, 0x3b, 0x4e, 0xc0, 0x18, 0x3b, 0x2a, 0xb6, 0x2d, 0x3b,
  0x55, 0xbd, 0x28, 0x3b, 0x12, 0x00, 0x00, 0x00, 0x74, 0x66, 0x6c, 0x2e,
  0x70, 0x73, 0x65, 0x75, 0x64, 0x6f, 0x5f, 0x71, 0x63, 0x6f, 0x6e, 0x73,
  0x74, 0x35, 0x00, 0x00, 0x02, 0x00, 0x00, 0x00, 0x20, 0x00, 0x00, 0x00,
  0x40, 0x00, 0x00, 0x00, 0x7e, 0xfb, 0xff, 0xff, 0x00, 0x00, 0x00, 0x01,
  0x14, 0x00, 0x00, 0x00, 0xa4, 0x01, 0x00, 0x00, 0x06, 0x00, 0x00, 0x00,
  0x00, 0x00, 0x00, 0x02, 0xb0, 0x01, 0x00, 0x00, 0xbc, 0xfa, 0xff, 0xff,
  0x08, 0x00, 0x00, 0x00, 0x08, 0x01, 0x00, 0x00, 0x20, 0x00, 0x00, 0x00,
  0x00, 0x00, 0x00, 0x00, 0x00, 0x00, 0x00, 0x00, 0x00, 0x00, 0x00, 0x00,
  0x00, 0x00, 0x00, 0x00, 0x00, 0x00, 0x00, 0x00, 0x00, 0x00, 0x00, 0x00,
  0x00, 0x00, 0x00, 0x00, 0x00, 0x00, 0x00, 0x00, 0x00, 0x00, 0x00, 0x00,
  0x00, 0x00, 0x00, 0x00, 0x00, 0x00, 0x00, 0x00, 0x00, 0x00, 0x00, 0x00,
  0x00, 0x00, 0x00, 0x00, 0x00, 0x00, 0x00, 0x00, 0x00, 0x00, 0x00, 0x00,
  0x00, 0x00, 0x00, 0x00, 0x00, 0x00, 0x00, 0x00, 0x00, 0x00, 0x00, 0x00,
  0x00, 0x00, 0x00, 0x00, 0x00, 0x00, 0x00, 0x00, 0x00, 0x00, 0x00, 0x00,
  0x00, 0x00, 0x00, 0x00, 0x00, 0x00, 0x00, 0x00, 0x00, 0x00, 0x00, 0x00,
  0x00, 0x00, 0x00, 0x00, 0x00, 0x00, 0x00, 0x00, 0x00, 0x00, 0x00, 0x00,
  0x00, 0x00, 0x00, 0x00, 0x00, 0x00, 0x00, 0x00, 0x00, 0x00, 0x00, 0x00,
  0x00, 0x00, 0x00, 0x00, 0x00, 0x00, 0x00, 0x00, 0x00, 0x00, 0x00, 0x00,
  0x00, 0x00, 0x00, 0x00, 0x00, 0x00, 0x00, 0x00, 0x00, 0x00, 0x00, 0x00,
  0x00, 0x00, 0x00, 0x00, 0x00, 0x00, 0x00, 0x00, 0x00, 0x00, 0x00, 0x00,
  0x00, 0x00, 0x00, 0x00, 0x00, 0x00, 0x00, 0x00, 0x00, 0x00, 0x00, 0x00,
  0x00, 0x00, 0x00, 0x00, 0x00, 0x00, 0x00, 0x00, 0x00, 0x00, 0x00, 0x00,
  0x00, 0x00, 0x00, 0x00, 0x00, 0x00, 0x00, 0x00, 0x00, 0x00, 0x00, 0x00,
  0x00, 0x00, 0x00, 0x00, 0x00, 0x00, 0x00, 0x00, 0x00, 0x00, 0x00, 0x00,
  0x00, 0x00, 0x00, 0x00, 0x00, 0x00, 0x00, 0x00, 0x00, 0x00, 0x00, 0x00,
  0x00, 0x00, 0x00, 0x00, 0x00, 0x00, 0x00, 0x00, 0x00, 0x00, 0x00, 0x00,
  0x00, 0x00, 0x00, 0x00, 0x00, 0x00, 0x00, 0x00, 0x00, 0x00, 0x00, 0x00,
  0x00, 0x00, 0x00, 0x00, 0x00, 0x00, 0x00, 0x00, 0x00, 0x00, 0x00, 0x00,
  0x00, 0x00, 0x00, 0x00, 0x20, 0x00, 0x00, 0x00, 0xac, 0xb5, 0x30, 0x38,
  0x53, 0x50, 0x39, 0x38, 0x38, 0xe5, 0x3c, 0x38, 0xf7, 0xb6, 0x38, 0x38,
  0x61, 0x31, 0x3d, 0x38, 0xf6, 0xac, 0x2d, 0x38, 0x0e, 0xea, 0x28, 0x38,
  0x8f, 0x18, 0x1d, 0x38, 0x60, 0x2f, 0x55, 0x38, 0xff, 0x82, 0x26, 0x38,
  0x2c, 0x58, 0x2a, 0x38, 0x9f, 0xaa, 0x1d, 0x38, 0xa4, 0xd7, 0x41, 0x38,
  0xda, 0x99, 0x2a, 0x38, 0x42, 0x82, 0x50, 0x38, 0xed, 0x75, 0x47, 0x38,
  0x57, 0x47, 0x1b, 0x38, 0xa6, 0xbf, 0x3d, 0x38, 0xf1, 0xbc, 0x2b, 0x38,
  0x13, 0xa1, 0x11, 0x38, 0xef, 0x80, 0x19, 0x38, 0x08, 0xc5, 0x18, 0x38,
  0x1b, 0x06, 0x18, 0x38, 0x68, 0xc9, 0x29, 0x38, 0xda, 0xce, 0x44, 0x38,
  0x7f, 0x55, 0x1b, 0x38, 0x1d, 0x3e, 0x2b, 0x38, 0xf1, 0x68, 0x39, 0x38,
  0x45, 0xc5, 0x13, 0x38, 0x50, 0x0a, 0x22, 0x38, 0x7a, 0x46, 0x38, 0x38,
  0x3e, 0x00, 0x33, 0x38, 0x12, 0x00, 0x00, 0x00, 0x74, 0x66, 0x6c, 0x2e,
  0x70, 0x73, 0x65, 0x75, 0x64, 0x6f, 0x5f, 0x71, 0x63, 0x6f, 0x6e, 0x73,
  0x74, 0x34, 0x00, 0x00, 0x01, 0x00, 0x00, 0x00, 0x20, 0x00, 0x00, 0x00,
  0x4e, 0xfd, 0xff, 0xff, 0x00, 0x00, 0x00, 0x01, 0x14, 0x00, 0x00, 0x00,
  0xe8, 0x00, 0x00, 0x00, 0x05, 0x00, 0x00, 0x00, 0x00, 0x00, 0x00, 0x09,
  0xf4, 0x00, 0x00, 0x00, 0x8c, 0xfc, 0xff, 0xff, 0x08, 0x00, 0x00, 0x00,
  0x8c, 0x00, 0x00, 0x00, 0x10, 0x00, 0x00, 0x00, 0x00, 0x00, 0x00, 0x00,
  0x00, 0x00, 0x00, 0x00, 0x00, 0x00, 0x00, 0x00, 0x00, 0x00, 0x00, 0x00,
  0x00, 0x00, 0x00, 0x00, 0x00, 0x00, 0x00, 0x00, 0x00, 0x00, 0x00, 0x00,
  0x00, 0x00, 0x00, 0x00, 0x00, 0x00, 0x00, 0x00, 0x00, 0x00, 0x00, 0x00,
  0x00, 0x00, 0x00, 0x00, 0x00, 0x00, 0x00, 0x00, 0x00, 0x00, 0x00, 0x00,
  0x00, 0x00, 0x00, 0x00, 0x00, 0x00, 0x00, 0x00, 0x00, 0x00, 0x00, 0x00,
  0x00, 0x00, 0x00, 0x00, 0x00, 0x00, 0x00, 0x00, 0x00, 0x00, 0x00, 0x00,
  0x00, 0x00, 0x00, 0x00, 0x00, 0x00, 0x00, 0x00, 0x00, 0x00, 0x00, 0x00,
  0x00, 0x00, 0x00, 0x00, 0x00, 0x00, 0x00, 0x00, 0x00, 0x00, 0x00, 0x00,
  0x00, 0x00, 0x00, 0x00, 0x00, 0x00, 0x00, 0x00, 0x00, 0x00, 0x00, 0x00,
  0x00, 0x00, 0x00, 0x00, 0x00, 0x00, 0x00, 0x00, 0x00, 0x00, 0x00, 0x00,
  0x00, 0x00, 0x00, 0x00, 0x00, 0x00, 0x00, 0x00, 0x10, 0x00, 0x00, 0x00,
  0x79, 0x7a, 0x5e, 0x3b, 0xac, 0x93, 0x3f, 0x3b, 0x4f, 0x5e, 0x45, 0x3b,
  0x71, 0x09, 0x87, 0x3b, 0x7e, 0x74, 0x55, 0x3b, 0x21, 0xac, 0x4e, 0x3b,
  0xdd, 0x40, 0x95, 0x3b, 0x18, 0xfa, 0x66, 0x3b, 0x59, 0xae, 0x4e, 0x3b,
  0x47, 0xbf, 0x59, 0x3b, 0x17, 0x40, 0x54, 0x3b, 0x43, 0x66, 0x43, 0x3b,
  0x5d, 0xb5, 0x4f, 0x3b, 0xcc, 0x88, 0x71, 0x3b, 0x23, 0x9c, 0x46, 0x3b,
  0x91, 0xf6, 0x52, 0x3b, 0x12, 0x00, 0x00, 0x00, 0x74, 0x66, 0x6c, 0x2e,
  0x70, 0x73, 0x65, 0x75, 0x64, 0x6f, 0x5f, 0x71, 0x63, 0x6f, 0x6e, 0x73,
  0x74, 0x33, 0x00, 0x00, 0x02, 0x00, 0x00, 0x00, 0x10, 0x00, 0x00, 0x00,
  0x20, 0x00, 0x00, 0x00, 0x66, 0xfe, 0xff, 0xff, 0x00, 0x00, 0x00, 0x01,
  0x14, 0x00, 0x00, 0x00, 0xe4, 0x00, 0x00, 0x00, 0x04, 0x00, 0x00, 0x00,
  0x00, 0x00, 0x00, 0x02, 0xf0, 0x00, 0x00, 0x00, 0xa4, 0xfd, 0xff, 0xff,
  0x08, 0x00, 0x00, 0x00, 0x88, 0x00, 0x00, 0x00, 0x10, 0x00, 0x00, 0x00,
  0x00, 0x00, 0x00, 0x00, 0x00, 0x00, 0x00, 0x00, 0x00, 0x00, 0x00, 0x00,
  0x00, 0x00, 0x00, 0x00, 0x00, 0x00, 0x00, 0x00, 0x00, 0x00, 0x00, 0x00,
  0x00, 0x00, 0x00, 0x00, 0x00, 0x00, 0x00, 0x00, 0x00, 0x00, 0x00, 0x00,
  0x00, 0x00, 0x00, 0x00, 0x00, 0x00, 0x00, 0x00, 0x00, 0x00, 0x00, 0x00,
  0x00, 0x00, 0x00, 0x00, 0x00, 0x00, 0x00, 0x00, 0x00, 0x00, 0x00, 0x00,
  0x00, 0x00, 0x00, 0x00, 0x00, 0x00, 0x00, 0x00, 0x00, 0x00, 0x00, 0x00,
  0x00, 0x00, 0x00, 0x00, 0x00, 0x00, 0x00, 0x00, 0x00, 0x00, 0x00, 0x00,
  0x00, 0x00, 0x00, 0x00, 0x00, 0x00, 0x00, 0x00, 0x00, 0x00, 0x00, 0x00,
  0x00, 0x00, 0x00, 0x00, 0x00, 0x00, 0x00, 0x00, 0x00, 0x00, 0x00, 0x00,
  0x00, 0x00, 0x00, 0x00, 0x00, 0x00, 0x00, 0x00, 0x00, 0x00, 0x00, 0x00,
  0x00, 0x00, 0x00, 0x00, 0x00, 0x00, 0x00, 0x00, 0x10, 0x00, 0x00, 0x00,
  0x52, 0xe3, 0x84, 0x38, 0x48, 0xdc, 0x64, 0x38, 0x76, 0xc7, 0x6b, 0x38,
  0x28, 0x51, 0xa1, 0x38, 0x1b, 0xff, 0x7e, 0x38, 0xd2, 0xe4, 0x76, 0x38,
  0xdd, 0x4c, 0xb2, 0x38, 0xd6, 0xf6, 0x89, 0x38, 0x78, 0xe7, 0x76, 0x38,
  0xdd, 0x0f, 0x82, 0x38, 0xaf, 0x8e, 0x7d, 0x38, 0x52, 0x6d, 0x69, 0x38,
  0xac, 0x21, 0x78, 0x38, 0x2e, 0x45, 0x90, 0x38, 0x25, 0x43, 0x6d, 0x38,
  0x07, 0x05, 0x7c, 0x38, 0x12, 0x00, 0x00, 0x00, 0x74, 0x66, 0x6c, 0x2e,
  0x70, 0x73, 0x65, 0x75, 0x64, 0x6f, 0x5f, 0x71, 0x63, 0x6f, 0x6e, 0x73,
  0x74, 0x32, 0x00, 0x00, 0x01, 0x00, 0x00, 0x00, 0x10, 0x00, 0x00, 0x00,
  0x76, 0xff, 0xff, 0xff, 0x00, 0x00, 0x00, 0x01, 0x14, 0x00, 0x00, 0x00,
  0x58, 0x00, 0x00, 0x00, 0x03, 0x00, 0x00, 0x00, 0x00, 0x00, 0x00, 0x09,
  0x64, 0x00, 0x00, 0x00, 0xb4, 0xfe, 0xff, 0xff, 0x08, 0x00, 0x00, 0x00,
  0x2c, 0x00, 0x00, 0x00, 0x04, 0x00, 0x00, 0x00, 0x00, 0x00, 0x00, 0x00,
  0x00, 0x00, 0x00, 0x00, 0x00, 0x00, 0x00, 0x00, 0x00, 0x00, 0x00, 0x00,
  0x00, 0x00, 0x00, 0x00, 0x00, 0x00, 0x00, 0x00, 0x00, 0x00, 0x00, 0x00,
  0x00, 0x00, 0x00, 0x00, 0x00, 0x00, 0x00, 0x00, 0x04, 0x00, 0x00, 0x00,
  0x75, 0xbd, 0xb6, 0x3b, 0x0a, 0xe0, 0xae, 0x3b, 0x83, 0x79, 0x98, 0x3b,
  0x15, 0xd9, 0x9f, 0x3b, 0x12, 0x00, 0x00, 0x00, 0x74, 0x66, 0x6c, 0x2e,
  0x70, 0x73, 0x65, 0x75, 0x64, 0x6f, 0x5f, 0x71, 0x63, 0x6f, 0x6e, 0x73,
  0x74, 0x31, 0x00, 0x00, 0x02, 0x00, 0x00, 0x00, 0x04, 0x00, 0x00, 0x00,
  0x10, 0x00, 0x00, 0x00, 0x00, 0x00, 0x16, 0x00, 0x1c, 0x00, 0x18, 0x00,
  0x17, 0x00, 0x10, 0x00, 0x0c, 0x00, 0x08, 0x00, 0x00, 0x00, 0x00, 0x00,
  0x00, 0x00, 0x07, 0x00, 0x16, 0x00, 0x00, 0x00, 0x00, 0x00, 0x00, 0x01,
  0x14, 0x00, 0x00, 0x00, 0x58, 0x00, 0x00, 0x00, 0x02, 0x00, 0x00, 0x00,
  0x00, 0x00, 0x00, 0x02, 0x64, 0x00, 0x00, 0x00, 0x54, 0xff, 0xff, 0xff,
  0x08, 0x00, 0x00, 0x00, 0x2c, 0x00, 0x00, 0x00, 0x04, 0x00, 0x00, 0x00,
  0x00, 0x00, 0x00, 0x00, 0x00, 0x00, 0x00, 0x00, 0x00, 0x00, 0x00, 0x00,
  0x00, 0x00, 0x00, 0x00, 0x00, 0x00, 0x00, 0x00, 0x00, 0x00, 0x00, 0x00,
  0x00, 0x00, 0x00, 0x00, 0x00, 0x00, 0x00, 0x00, 0x00, 0x00, 0x00, 0x00,
  0x04, 0x00, 0x00, 0x00, 0xca, 0xa4, 0xe9, 0x38, 0x85, 0x96, 0xdf, 0x38,
  0x98, 0xf2, 0xc2, 0x38, 0xf6, 0x5f, 0xcc, 0x38, 0x11, 0x00, 0x00, 0x00,
  0x74, 0x66, 0x6c, 0x2e, 0x70, 0x73, 0x65, 0x75, 0x64, 0x6f, 0x5f, 0x71,
  0x63, 0x6f, 0x6e, 0x73, 0x74, 0x00, 0x00, 0x00, 0x01, 0x00, 0x00, 0x00,
  0x04, 0x00, 0x00, 0x00, 0x00, 0x00, 0x16, 0x00, 0x20, 0x00, 0x1c, 0x00,
  0x1b, 0x00, 0x14, 0x00, 0x10, 0x00, 0x0c, 0x00, 0x00, 0x00, 0x00, 0x00,
  0x08, 0x00, 0x07, 0x00, 0x16, 0x00, 0x00, 0x00, 0x00, 0x00, 0x00, 0x01,
  0x18, 0x00, 0x00, 0x00, 0x2c, 0x00, 0x00, 0x00, 0x48, 0x00, 0x00, 0x00,
  0x01, 0x00, 0x00, 0x00, 0x00, 0x00, 0x00, 0x09, 0x68, 0x00, 0x00, 0x00,
  0x02, 0x00, 0x00, 0x00, 0xff, 0xff, 0xff, 0xff, 0x1c, 0x00, 0x00, 0x00,
  0x0c, 0x00, 0x0c, 0x00, 0x00, 0x00, 0x00, 0x00, 0x08, 0x00, 0x04, 0x00,
  0x0c, 0x00, 0x00, 0x00, 0x08, 0x00, 0x00, 0x00, 0x10, 0x00, 0x00, 0x00,
  0x01, 0x00, 0x00, 0x00, 0xea, 0xff, 0xff, 0xff, 0xff, 0xff, 0xff, 0xff,
  0x01, 0x00, 0x00, 0x00, 0xad, 0x36, 0x1c, 0x3d, 0x27, 0x00, 0x00, 0x00,
  0x73, 0x65, 0x72, 0x76, 0x69, 0x6e, 0x67, 0x5f, 0x64, 0x65, 0x66, 0x61,
  0x75, 0x6c, 0x74, 0x5f, 0x61, 0x75, 0x72, 0x61, 0x73, 0x79, 0x6e, 0x63,
  0x5f, 0x64, 0x73, 0x70, 0x5f, 0x66, 0x65, 0x61, 0x74, 0x75, 0x72, 0x65,
  0x73, 0x3a, 0x30, 0x00, 0x02, 0x00, 0x00, 0x00, 0x01, 0x00, 0x00, 0x00,
  0x1c, 0x00, 0x00, 0x00, 0x02, 0x00, 0x00, 0x00, 0x24, 0x00, 0x00, 0x00,
  0x04, 0x00, 0x00, 0x00, 0xf0, 0xff, 0xff, 0xff, 0x19, 0x00, 0x00, 0x00,
  0x02, 0x00, 0x00, 0x00, 0x00, 0x00, 0x00, 0x19, 0x0c, 0x00, 0x10, 0x00,
  0x0f, 0x00, 0x00, 0x00, 0x08, 0x00, 0x04, 0x00, 0x0c, 0x00, 0x00, 0x00,
  0x09, 0x00, 0x00, 0x00, 0x04, 0x00, 0x00, 0x00, 0x00, 0x00, 0x00, 0x09,
};
const unsigned int g_aurasync_state_model_len = 10536;